{
  "version": "1.0",
  "truncation": null,
  "padding": null,
  "added_tokens": [
    {
      "id": 0,
      "content": "[PAD]",
      "single_word": false,
      "lstrip": false,
      "rstrip": false,
      "normalized": false,
      "special": true
    },
    {
      "id": 1,
      "content": "[UNK]",
      "single_word": false,
      "lstrip": false,
      "rstrip": false,
      "normalized": false,
      "special": true
    },
    {
      "id": 2,
      "content": "[CLS]",
      "single_word": false,
      "lstrip": false,
      "rstrip": false,
      "normalized": false,
      "special": true
    },
    {
      "id": 3,
      "content": "[SEP]",
      "single_word": false,
      "lstrip": false,
      "rstrip": false,
      "normalized": false,
      "special": true
    },
    {
      "id": 4,
      "content": "[MASK]",
      "single_word": false,
      "lstrip": false,
      "rstrip": false,
      "normalized": false,
      "special": true
    },
    {
      "id": 5,
      "content": "[EOS]",
      "single_word": false,
      "lstrip": false,
      "rstrip": false,
      "normalized": false,
      "special": true
    }
  ],
  "normalizer": {
    "type": "Sequence",
    "normalizers": [
      {
        "type": "NFD"
      },
      {
        "type": "Lowercase"
      },
      {
        "type": "Strip",
        "strip_left": true,
        "strip_right": true
      }
    ]
  },
  "pre_tokenizer": {
    "type": "Whitespace"
  },
  "post_processor": {
    "type": "TemplateProcessing",
    "single": [
      {
        "Sequence": {
          "id": "A",
          "type_id": 0
        }
      }
    ],
    "pair": [
      {
        "Sequence": {
          "id": "A",
          "type_id": 0
        }
      },
      {
        "SpecialToken": {
          "id": "[SEP]",
          "type_id": 0
        }
      },
      {
        "Sequence": {
          "id": "B",
          "type_id": 1
        }
      }
    ],
    "special_tokens": {
      "[SEP]": {
        "id": "[SEP]",
        "ids": [
          3
        ],
        "tokens": [
          "[SEP]"
        ]
      }
    }
  },
  "decoder": null,
  "model": {
    "type": "WordPiece",
    "unk_token": "[UNK]",
    "continuing_subword_prefix": "-",
    "max_input_chars_per_word": 100,
    "vocab": {
      "[PAD]": 0,
      "[UNK]": 1,
      "[CLS]": 2,
      "[SEP]": 3,
      "[MASK]": 4,
      "[EOS]": 5,
      "!": 6,
      "'": 7,
      ",": 8,
      "-": 9,
      ".": 10,
      "?": 11,
      "a": 12,
      "b": 13,
      "c": 14,
      "d": 15,
      "e": 16,
      "f": 17,
      "g": 18,
      "h": 19,
      "i": 20,
      "j": 21,
      "k": 22,
      "l": 23,
      "m": 24,
      "n": 25,
      "o": 26,
      "p": 27,
      "q": 28,
      "r": 29,
      "s": 30,
      "t": 31,
      "u": 32,
      "v": 33,
      "w": 34,
      "x": 35,
      "y": 36,
      "z": 37,
      "۔": 38,
      "-a": 39,
      "-n": 40,
      "-g": 41,
      "-i": 42,
      "-s": 43,
      "-l": 44,
      "-y": 45,
      "-h": 46,
      "-u": 47,
      "-m": 48,
      "-j": 49,
      "-e": 50,
      "-d": 51,
      "-r": 52,
      "-t": 53,
      "-o": 54,
      "-k": 55,
      "-z": 56,
      "-b": 57,
      "-f": 58,
      "-p": 59,
      "-v": 60,
      "-q": 61,
      "-c": 62,
      "-x": 63,
      "--": 64,
      "-'": 65,
      "-w": 66,
      "-ar": 67,
      "ha": 68,
      "-ha": 69,
      "-hi": 70,
      "hai": 71,
      "-an": 72,
      "na": 73,
      "ki": 74,
      "ka": 75,
      "-at": 76,
      "-en": 77,
      "-ya": 78,
      "-un": 79,
      "-ah": 80,
      "ja": 81,
      "se": 82,
      "men": 83,
      "ko": 84,
      "sa": 85,
      "-in": 86,
      "-sh": 87,
      "-il": 88,
      "-ir": 89,
      "ma": 90,
      "ba": 91,
      "ke": 92,
      "-am": 93,
      "ho": 94,
      "-kh": 95,
      "-hin": 96,
      "-ur": 97,
      "-da": 98,
      "hu": 99,
      "-hu": 100,
      "hain": 101,
      "-ta": 102,
      "-on": 103,
      "to": 104,
      "ra": 105,
      "bhi": 106,
      "-han": 107,
      "aa": 108,
      "kar": 109,
      "-ch": 110,
      "-al": 111,
      "ham": 112,
      "dil": 113,
      "nahin": 114,
      "-is": 115,
      "mu": 116,
      "-ab": 117,
      "-he": 118,
      "-har": 119,
      "tu": 120,
      "-te": 121,
      "kya": 122,
      "ga": 123,
      "sha": 124,
      "vo": 125,
      "ye": 126,
      "-as": 127,
      "-na": 128,
      "-ti": 129,
      "de": 130,
      "-ad": 131,
      "cha": 132,
      "us": 133,
      "-er": 134,
      "khu": 135,
      "jo": 136,
      "ta": 137,
      "-ul": 138,
      "kha": 139,
      "va": 140,
      "ab": 141,
      "ya": 142,
      "par": 143,
      "ne": 144,
      "hi": 145,
      "ku": 146,
      "tha": 147,
      "-la": 148,
      "-chh": 149,
      "-ne": 150,
      "main": 151,
      "gha": 152,
      "muj": 153,
      "-va": 154,
      "rah": 155,
      "-hir": 156,
      "la": 157,
      "ni": 158,
      "pa": 159,
      "be": 160,
      "di": 161,
      "-gar": 162,
      "-ana": 163,
      "ap": 164,
      "dar": 165,
      "-ye": 166,
      "huun": 167,
      "-zar": 168,
      "mir": 169,
      "koi": 170,
      "tir": 171,
      "kuchh": 172,
      "aur": 173,
      "-ho": 174,
      "kis": 175,
      "-uun": 176,
      "-ut": 177,
      "an": 178,
      "har": 179,
      "pe": 180,
      "-gi": 181,
      "-ga": 182,
      "mer": 183,
      "-man": 184,
      "-ara": 185,
      "si": 186,
      "is": 187,
      "gaya": 188,
      "da": 189,
      "ish": 190,
      "dekh": 191,
      "phir": 192,
      "-ane": 193,
      "li": 194,
      "ik": 195,
      "-ma": 196,
      "-ari": 197,
      "bah": 198,
      "tum": 199,
      "kab": 200,
      "-ge": 201,
      "sab": 202,
      "-li": 203,
      "as": 204,
      "-gh": 205,
      "ai": 206,
      "-le": 207,
      "hua": 208,
      "sar": 209,
      "du": 210,
      "ter": 211,
      "un": 212,
      "ch": 213,
      "-ni": 214,
      "jis": 215,
      "kah": 216,
      "ishq": 217,
      "gu": 218,
      "-ra": 219,
      "mujhe": 220,
      "-ang": 221,
      "tar": 222,
      "-za": 223,
      "-ata": 224,
      "-jh": 225,
      "thi": 226,
      "mil": 227,
      "gar": 228,
      "raha": 229,
      "gham": 230,
      "mujh": 231,
      "jaa": 232,
      "tak": 233,
      "le": 234,
      "su": 235,
      "-kha": 236,
      "kh": 237,
      "jab": 238,
      "ji": 239,
      "-di": 240,
      "ut": 241,
      "-hr": 242,
      "-fa": 243,
      "ky": 244,
      "-sha": 245,
      "-iya": 246,
      "ru": 247,
      "ek": 248,
      "-ani": 249,
      "en": 250,
      "-ate": 251,
      "gul": 252,
      "za": 253,
      "nazar": 254,
      "-ath": 255,
      "mo": 256,
      "bar": 257,
      "-yan": 258,
      "bad": 259,
      "-aq": 260,
      "do": 261,
      "nik": 262,
      "zin": 263,
      "ban": 264,
      "mire": 265,
      "-us": 266,
      "kabhi": 267,
      "mar": 268,
      "so": 269,
      "ghar": 270,
      "-mi": 271,
      "-bar": 272,
      "kahan": 273,
      "-ala": 274,
      "kyuun": 275,
      "rahe": 276,
      "in": 277,
      "the": 278,
      "kisi": 279,
      "-ise": 280,
      "-bat": 281,
      "jan": 282,
      "apne": 283,
      "bahut": 284,
      "aaj": 285,
      "zam": 286,
      "man": 287,
      "sam": 288,
      "tiri": 289,
      "tire": 290,
      "-it": 291,
      "kiya": 292,
      "-gah": 293,
      "magar": 294,
      "sak": 295,
      "apni": 296,
      "-var": 297,
      "hue": 298,
      "shab": 299,
      "zinda": 300,
      "al": 301,
      "mah": 302,
      "rang": 303,
      "sun": 304,
      "agar": 305,
      "-mat": 306,
      "-hiye": 307,
      "pu": 308,
      "pah": 309,
      "-are": 310,
      "tujh": 311,
      "jal": 312,
      "-uq": 313,
      "baat": 314,
      "din": 315,
      "nigah": 316,
      "dam": 317,
      "qa": 318,
      "-sa": 319,
      "hui": 320,
      "miri": 321,
      "meri": 322,
      "az": 323,
      "-hab": 324,
      "khud": 325,
      "ak": 326,
      "-ib": 327,
      "ankh": 328,
      "naz": 329,
      "liye": 330,
      "qad": 331,
      "has": 332,
      "sho": 333,
      "-ish": 334,
      "-um": 335,
      "-ati": 336,
      "shar": 337,
      "kam": 338,
      "khuda": 339,
      "tarah": 340,
      "ro": 341,
      "-ka": 342,
      "bas": 343,
      "diya": 344,
      "mere": 345,
      "shi": 346,
      "-rat": 347,
      "lo": 348,
      "hota": 349,
      "yaad": 350,
      "dard": 351,
      "sah": 352,
      "-kin": 353,
      "bhar": 354,
      "-st": 355,
      "-kar": 356,
      "-iz": 357,
      "-shi": 358,
      "-van": 359,
      "jahan": 360,
      "apna": 361,
      "bi": 362,
      "-cha": 363,
      "zindagi": 364,
      "ah": 365,
      "-az": 366,
      "-yat": 367,
      "tam": 368,
      "-dar": 369,
      "jaan": 370,
      "chal": 371,
      "ar": 372,
      "-de": 373,
      "hus": 374,
      "aap": 375,
      "sur": 376,
      "-uj": 377,
      "ash": 378,
      "dun": 379,
      "kahin": 380,
      "husn": 381,
      "yuun": 382,
      "jaane": 383,
      "gir": 384,
      "aaya": 385,
      "vahi": 386,
      "mohab": 387,
      "mohabbat": 388,
      "saath": 389,
      "khan": 390,
      "-tar": 391,
      "aan": 392,
      "duniya": 393,
      "char": 394,
      "um": 395,
      "-dan": 396,
      "sham": 397,
      "lag": 398,
      "chan": 399,
      "lab": 400,
      "vaq": 401,
      "zar": 402,
      "-ak": 403,
      "teri": 404,
      "it": 405,
      "-hen": 406,
      "tab": 407,
      "kaun": 408,
      "-hun": 409,
      "khush": 410,
      "abhi": 411,
      "zab": 412,
      "zul": 413,
      "-ban": 414,
      "mai": 415,
      "raat": 416,
      "shahr": 417,
      "khat": 418,
      "log": 419,
      "-im": 420,
      "-ale": 421,
      "vafa": 422,
      "tere": 423,
      "af": 424,
      "-lam": 425,
      "-ve": 426,
      "-jhe": 427,
      "-far": 428,
      "rahi": 429,
      "chand": 430,
      "bhu": 431,
      "qat": 432,
      "-vab": 433,
      "-hal": 434,
      "bada": 435,
      "rakh": 436,
      "ina": 437,
      "bat": 438,
      "tas": 439,
      "hamen": 440,
      "chash": 441,
      "mera": 442,
      "lekin": 443,
      "puchh": 444,
      "aj": 445,
      "ada": 446,
      "-sta": 447,
      "ais": 448,
      "-qat": 449,
      "dekha": 450,
      "hij": 451,
      "chho": 452,
      "sub": 453,
      "vaqt": 454,
      "haath": 455,
      "chu": 456,
      "-ast": 457,
      "tan": 458,
      "baz": 459,
      "ju": 460,
      "-agh": 461,
      "nas": 462,
      "kare": 463,
      "karte": 464,
      "chashm": 465,
      "khar": 466,
      "pad": 467,
      "-aya": 468,
      "-id": 469,
      "-yad": 470,
      "hon": 471,
      "pai": 472,
      "hava": 473,
      "guzar": 474,
      "-kan": 475,
      "use": 476,
      "ad": 477,
      "-uf": 478,
      "-re": 479,
      "-enge": 480,
      "jam": 481,
      "mira": 482,
      "-lib": 483,
      "fa": 484,
      "-ub": 485,
      "-anj": 486,
      "go": 487,
      "-chch": 488,
      "bahar": 489,
      "-aqi": 490,
      "ankhon": 491,
      "tal": 492,
      "tira": 493,
      "tara": 494,
      "-gha": 495,
      "hal": 496,
      "-ud": 497,
      "-fat": 498,
      "jaate": 499,
      "-ina": 500,
      "-che": 501,
      "tera": 502,
      "yar": 503,
      "naam": 504,
      "far": 505,
      "kho": 506,
      "mat": 507,
      "ul": 508,
      "-dhar": 509,
      "-kr": 510,
      "hoga": 511,
      "me": 512,
      "mun": 513,
      "kaam": 514,
      "vas": 515,
      "han": 516,
      "shauq": 517,
      "kahte": 518,
      "suk": 519,
      "dost": 520,
      "-fil": 521,
      "-sht": 522,
      "-khm": 523,
      "chahiye": 524,
      "ashi": 525,
      "zaban": 526,
      "at": 527,
      "achch": 528,
      "sahi": 529,
      "-ali": 530,
      "chale": 531,
      "sit": 532,
      "utha": 533,
      "aate": 534,
      "-ke": 535,
      "khabar": 536,
      "liya": 537,
      "zulf": 538,
      "jun": 539,
      "-yon": 540,
      "-yal": 541,
      "tujhe": 542,
      "bana": 543,
      "jin": 544,
      "khi": 545,
      "vah": 546,
      "-shan": 547,
      "-ri": 548,
      "mas": 549,
      "yaan": 550,
      "khvab": 551,
      "jaana": 552,
      "-vaz": 553,
      "zakhm": 554,
      "manz": 555,
      "aankh": 556,
      "junun": 557,
      "pya": 558,
      "-san": 559,
      "sama": 560,
      "mauj": 561,
      "khayal": 562,
      "umr": 563,
      "var": 564,
      "-ila": 565,
      "duur": 566,
      "chhu": 567,
      "san": 568,
      "-gan": 569,
      "-khi": 570,
      "jaata": 571,
      "shakh": 572,
      "laa": 573,
      "akhir": 574,
      "ahl": 575,
      "hijr": 576,
      "taraf": 577,
      "suun": 578,
      "te": 579,
      "-pa": 580,
      "sada": 581,
      "-ind": 582,
      "bait": 583,
      "ghair": 584,
      "dush": 585,
      "chhod": 586,
      "fir": 587,
      "kaise": 588,
      "hoti": 589,
      "-tab": 590,
      "khaak": 591,
      "laga": 592,
      "guz": 593,
      "jigar": 594,
      "-shat": 595,
      "band": 596,
      "bazm": 597,
      "aata": 598,
      "-ja": 599,
      "naq": 600,
      "yahi": 601,
      "manzil": 602,
      "pur": 603,
      "-ki": 604,
      "-zan": 605,
      "-qi": 606,
      "jaise": 607,
      "safar": 608,
      "baar": 609,
      "aad": 610,
      "mud": 611,
      "bha": 612,
      "fas": 613,
      "pi": 614,
      "-vat": 615,
      "kit": 616,
      "-shk": 617,
      "yahan": 618,
      "dagh": 619,
      "dekhte": 620,
      "surat": 621,
      "bu": 622,
      "dast": 623,
      "-yar": 624,
      "-hon": 625,
      "karo": 626,
      "kham": 627,
      "yak": 628,
      "dikha": 629,
      "dariya": 630,
      "nikle": 631,
      "bul": 632,
      "hote": 633,
      "-ura": 634,
      "ghalib": 635,
      "khun": 636,
      "zamin": 637,
      "ankhen": 638,
      "roz": 639,
      "am": 640,
      "phu": 641,
      "zara": 642,
      "-sat": 643,
      "-qa": 644,
      "chaman": 645,
      "khul": 646,
      "nikla": 647,
      "inti": 648,
      "ega": 649,
      "-ikr": 650,
      "firaq": 651,
      "che": 652,
      "nis": 653,
      "-tan": 654,
      "ghaz": 655,
      "-alak": 656,
      "zamana": 657,
      "qadam": 658,
      "samajh": 659,
      "-iyan": 660,
      "-tish": 661,
      "yaar": 662,
      "kuun": 663,
      "pahle": 664,
      "sitam": 665,
      "dhun": 666,
      "shayad": 667,
      "lagta": 668,
      "bo": 669,
      "chi": 670,
      "dhu": 671,
      "fur": 672,
      "ghu": 673,
      "il": 674,
      "-su": 675,
      "-zu": 676,
      "-had": 677,
      "-ahr": 678,
      "maq": 679,
      "tumhar": 680,
      "mile": 681,
      "alam": 682,
      "qaya": 683,
      "aisa": 684,
      "tanha": 685,
      "iin": 686,
      "-sar": 687,
      "kal": 688,
      "kais": 689,
      "ras": 690,
      "mus": 691,
      "nikal": 692,
      "dushman": 693,
      "-hta": 694,
      "kiye": 695,
      "siva": 696,
      "jalva": 697,
      "charagh": 698,
      "mehr": 699,
      "sukhan": 700,
      "aise": 701,
      "aati": 702,
      "-hat": 703,
      "kaf": 704,
      "asad": 705,
      "milta": 706,
      "rukh": 707,
      "hasti": 708,
      "shik": 709,
      "atish": 710,
      "but": 711,
      "den": 712,
      "-uk": 713,
      "-kht": 714,
      "aalam": 715,
      "karen": 716,
      "suna": 717,
      "ashna": 718,
      "badal": 719,
      "kharab": 720,
      "qayamat": 721,
      "re": 722,
      "haal": 723,
      "kaha": 724,
      "jaati": 725,
      "-daz": 726,
      "usi": 727,
      "anj": 728,
      "-mid": 729,
      "ashiq": 730,
      "aah": 731,
      "eh": 732,
      "khin": 733,
      "shu": 734,
      "she": 735,
      "-ba": 736,
      "-fas": 737,
      "divar": 738,
      "bhuul": 739,
      "baten": 740,
      "aadmi": 741,
      "qar": 742,
      "ti": 743,
      "-val": 744,
      "-vana": 745,
      "-ham": 746,
      "saa": 747,
      "raah": 748,
      "kahun": 749,
      "daman": 750,
      "sahra": 751,
      "hans": 752,
      "achchha": 753,
      "vahshat": 754,
      "-anv": 755,
      "sau": 756,
      "raf": 757,
      "shai": 758,
      "dua": 759,
      "jise": 760,
      "soch": 761,
      "mahfil": 762,
      "khana": 763,
      "munh": 764,
      "pyaar": 765,
      "varna": 766,
      "phuul": 767,
      "iz": 768,
      "qis": 769,
      "-aj": 770,
      "-ine": 771,
      "aage": 772,
      "shaam": 773,
      "asman": 774,
      "mila": 775,
      "sharab": 776,
      "gun": 777,
      "im": 778,
      "lut": 779,
      "-gu": 780,
      "-ji": 781,
      "hazar": 782,
      "hayat": 783,
      "nash": 784,
      "saaqi": 785,
      "maj": 786,
      "rab": 787,
      "hamari": 788,
      "zamane": 789,
      "sake": 790,
      "aisi": 791,
      "juda": 792,
      "dhund": 793,
      "ara": 794,
      "jhu": 795,
      "pas": 796,
      "-dat": 797,
      "hav": 798,
      "baaqi": 799,
      "rak": 800,
      "qadar": 801,
      "sahar": 802,
      "tamam": 803,
      "itna": 804,
      "qatil": 805,
      "faq": 806,
      "hun": 807,
      "mis": 808,
      "uda": 809,
      "-je": 810,
      "sad": 811,
      "mast": 812,
      "-hane": 813,
      "hamare": 814,
      "lage": 815,
      "tumhen": 816,
      "saba": 817,
      "samj": 818,
      "hasrat": 819,
      "ashk": 820,
      "talab": 821,
      "aar": 822,
      "lah": 823,
      "sang": 824,
      "hat": 825,
      "bal": 826,
      "bala": 827,
      "hosh": 828,
      "raq": 829,
      "vaale": 830,
      "ani": 831,
      "utar": 832,
      "enge": 833,
      "sakta": 834,
      "pahun": 835,
      "ulfat": 836,
      "av": 837,
      "fit": 838,
      "len": 839,
      "pal": 840,
      "qab": 841,
      "-lat": 842,
      "-uh": 843,
      "haa": 844,
      "-anna": 845,
      "kash": 846,
      "kahiye": 847,
      "vaala": 848,
      "abr": 849,
      "paa": 850,
      "paaya": 851,
      "andaz": 852,
      "likh": 853,
      "asar": 854,
      "kyun": 855,
      "tamanna": 856,
      "afs": 857,
      "naqsh": 858,
      "egi": 859,
      "gali": 860,
      "-hra": 861,
      "-uhar": 862,
      "-mar": 863,
      "-zi": 864,
      "-hid": 865,
      "paas": 866,
      "ajab": 867,
      "shakhs": 868,
      "guzre": 869,
      "bata": 870,
      "khir": 871,
      "mit": 872,
      "ranj": 873,
      "-ghan": 874,
      "-bul": 875,
      "haq": 876,
      "-asha": 877,
      "daur": 878,
      "lete": 879,
      "khva": 880,
      "badan": 881,
      "all": 882,
      "avaz": 883,
      "gah": 884,
      "iye": 885,
      "khe": 886,
      "pat": 887,
      "qas": 888,
      "ud": 889,
      "zo": 890,
      "-nam": 891,
      "-if": 892,
      "-hte": 893,
      "nau": 894,
      "kaho": 895,
      "-yam": 896,
      "-khe": 897,
      "-uri": 898,
      "-hana": 899,
      "karun": 900,
      "karta": 901,
      "khak": 902,
      "parda": 903,
      "isi": 904,
      "-hre": 905,
      "shor": 906,
      "baithe": 907,
      "havas": 908,
      "aane": 909,
      "bis": 910,
      "falak": 911,
      "his": 912,
      "mi": 913,
      "-zat": 914,
      "haan": 915,
      "-and": 916,
      "nam": 917,
      "mal": 918,
      "maza": 919,
      "-urda": 920,
      "mushk": 921,
      "paanv": 922,
      "-araz": 923,
      "guman": 924,
      "jit": 925,
      "zafar": 926,
      "sharm": 927,
      "tamasha": 928,
      "khatir": 929,
      "kaisi": 930,
      "vir": 931,
      "-uz": 932,
      "-jar": 933,
      "-ran": 934,
      "-osh": 935,
      "saz": 936,
      "saman": 937,
      "maut": 938,
      "maus": 939,
      "rag": 940,
      "dete": 941,
      "khal": 942,
      "khata": 943,
      "dekhna": 944,
      "-mak": 945,
      "ummid": 946,
      "tabi": 947,
      "paida": 948,
      "vasl": 949,
      "tegh": 950,
      "aarzu": 951,
      "kyunkar": 952,
      "mausam": 953,
      "ala": 954,
      "miz": 955,
      "tala": 956,
      "-ida": 957,
      "-ije": 958,
      "-vani": 959,
      "had": 960,
      "-hish": 961,
      "-ira": 962,
      "rau": 963,
      "rasta": 964,
      "-hani": 965,
      "karti": 966,
      "lagi": 967,
      "dukh": 968,
      "-dish": 969,
      "soz": 970,
      "alum": 971,
      "itni": 972,
      "ghazal": 973,
      "samjha": 974,
      "bane": 975,
      "fikr": 976,
      "ghun": 977,
      "gila": 978,
      "lam": 979,
      "mur": 980,
      "tah": 981,
      "-up": 982,
      "-eh": 983,
      "-ton": 984,
      "-ft": 985,
      "-ftar": 986,
      "-hista": 987,
      "nafas": 988,
      "jala": 989,
      "-shta": 990,
      "makan": 991,
      "bakh": 992,
      "karam": 993,
      "karna": 994,
      "hamara": 995,
      "khuun": 996,
      "khula": 997,
      "-ula": 998,
      "pare": 999,
      "gardish": 1000,
      "marg": 1001,
      "chalo": 1002,
      "pade": 1003,
      "muddat": 1004,
      "intizar": 1005,
      "khinch": 1006,
      "ahista": 1007,
      "buj": 1008,
      "don": 1009,
      "kan": 1010,
      "rish": 1011,
      "zanj": 1012,
      "-eban": 1013,
      "-bu": 1014,
      "-bad": 1015,
      "-vir": 1016,
      "-shar": 1017,
      "hona": 1018,
      "khudi": 1019,
      "khushi": 1020,
      "taq": 1021,
      "vahan": 1022,
      "yaq": 1023,
      "siya": 1024,
      "dekho": 1025,
      "sabr": 1026,
      "unhen": 1027,
      "kahna": 1028,
      "zahir": 1029,
      "zauq": 1030,
      "jante": 1031,
      "aansu": 1032,
      "chehre": 1033,
      "chiiz": 1034,
      "khvahish": 1035,
      "mushkil": 1036,
      "pareshan": 1037,
      "donon": 1038,
      "zanjir": 1039,
      "idhar": 1040,
      "qal": 1041,
      "rat": 1042,
      "zal": 1043,
      "-ash": 1044,
      "-nat": 1045,
      "-rar": 1046,
      "-bi": 1047,
      "haz": 1048,
      "saf": 1049,
      "raus": 1050,
      "aag": 1051,
      "aave": 1052,
      "-istan": 1053,
      "muq": 1054,
      "chala": 1055,
      "laz": 1056,
      "and": 1057,
      "dava": 1058,
      "dasht": 1059,
      "jism": 1060,
      "gareban": 1061,
      "moh": 1062,
      "janan": 1063,
      "samb": 1064,
      "khushbu": 1065,
      "qatra": 1066,
      "fasl": 1067,
      "ghubar": 1068,
      "qismat": 1069,
      "lutf": 1070,
      "-jiye": 1071,
      "hathon": 1072,
      "raushan": 1073,
      "udhar": 1074,
      "val": 1075,
      "zikr": 1076,
      "-si": 1077,
      "-se": 1078,
      "-uma": 1079,
      "-oge": 1080,
      "naaz": 1081,
      "jaz": 1082,
      "koh": 1083,
      "sach": 1084,
      "-she": 1085,
      "-shr": 1086,
      "hone": 1087,
      "musa": 1088,
      "-hed": 1089,
      "beg": 1090,
      "kahta": 1091,
      "tark": 1092,
      "jaao": 1093,
      "rus": 1094,
      "azad": 1095,
      "hasil": 1096,
      "shokh": 1097,
      "-shish": 1098,
      "-lamat": 1099,
      "honge": 1100,
      "faza": 1101,
      "laakh": 1102,
      "bulbul": 1103,
      "sher": 1104,
      "allah": 1105,
      "bin": 1106,
      "fari": 1107,
      "fare": 1108,
      "ir": 1109,
      "ila": 1110,
      "lu": 1111,
      "qur": 1112,
      "tho": 1113,
      "vali": 1114,
      "nagh": 1115,
      "kat": 1116,
      "saj": 1117,
      "bagha": 1118,
      "-khar": 1119,
      "raz": 1120,
      "josh": 1121,
      "niya": 1122,
      "paani": 1123,
      "haram": 1124,
      "uth": 1125,
      "sakti": 1126,
      "ahd": 1127,
      "nasib": 1128,
      "fursat": 1129,
      "tumhare": 1130,
      "lazzat": 1131,
      "sir": 1132,
      "tari": 1133,
      "uj": 1134,
      "vis": 1135,
      "-hur": 1136,
      "-khiye": 1137,
      "-chan": 1138,
      "kiije": 1139,
      "-undar": 1140,
      "jag": 1141,
      "saari": 1142,
      "saare": 1143,
      "baha": 1144,
      "-khti": 1145,
      "niind": 1146,
      "didar": 1147,
      "zindan": 1148,
      "insan": 1149,
      "samjhe": 1150,
      "samundar": 1151,
      "rakhte": 1152,
      "tasvir": 1153,
      "khol": 1154,
      "mudda": 1155,
      "hunar": 1156,
      "lahu": 1157,
      "rusva": 1158,
      "visal": 1159,
      "aana": 1160,
      "pata": 1161,
      "zer": 1162,
      "-sin": 1163,
      "-fi": 1164,
      "-vv": 1165,
      "haqi": 1166,
      "hashr": 1167,
      "nava": 1168,
      "jafa": 1169,
      "saan": 1170,
      "saza": 1171,
      "-dad": 1172,
      "rashk": 1173,
      "hamin": 1174,
      "dekhiye": 1175,
      "chaar": 1176,
      "tap": 1177,
      "vaj": 1178,
      "rahta": 1179,
      "pada": 1180,
      "harf": 1181,
      "gard": 1182,
      "khur": 1183,
      "puch": 1184,
      "shokhi": 1185,
      "gira": 1186,
      "chara": 1187,
      "aji": 1188,
      "hijab": 1189,
      "chup": 1190,
      "juz": 1191,
      "adam": 1192,
      "chhup": 1193,
      "kitna": 1194,
      "furqat": 1195,
      "raste": 1196,
      "ehsan": 1197,
      "rafta": 1198,
      "qasam": 1199,
      "zalim": 1200,
      "baghair": 1201,
      "haqiqat": 1202,
      "faraz": 1203,
      "jur": 1204,
      "-ghar": 1205,
      "-mil": 1206,
      "-dam": 1207,
      "-ron": 1208,
      "-vish": 1209,
      "-hala": 1210,
      "jauhar": 1211,
      "say": 1212,
      "maz": 1213,
      "tod": 1214,
      "chahe": 1215,
      "tava": 1216,
      "divana": 1217,
      "sabhi": 1218,
      "gum": 1219,
      "garm": 1220,
      "ruuh": 1221,
      "gulshan": 1222,
      "shabnam": 1223,
      "bich": 1224,
      "arz": 1225,
      "logon": 1226,
      "-ghaf": 1227,
      "halat": 1228,
      "achchhi": 1229,
      "chhupa": 1230,
      "bhala": 1231,
      "kitne": 1232,
      "yaaro": 1233,
      "dhuup": 1234,
      "faqat": 1235,
      "hisab": 1236,
      "sambhal": 1237,
      "ajiib": 1238,
      "bura": 1239,
      "dha": 1240,
      "dan": 1241,
      "dho": 1242,
      "ghur": 1243,
      "ij": 1244,
      "pin": 1245,
      "ron": 1246,
      "shir": 1247,
      "sara": 1248,
      "-uman": 1249,
      "-me": 1250,
      "-tin": 1251,
      "-thar": 1252,
      "hairat": 1253,
      "nama": 1254,
      "-atan": 1255,
      "javab": 1256,
      "saghar": 1257,
      "maan": 1258,
      "mash": 1259,
      "bayan": 1260,
      "aab": 1261,
      "-all": 1262,
      "shah": 1263,
      "der": 1264,
      "deta": 1265,
      "taghaf": 1266,
      "abad": 1267,
      "pari": 1268,
      "diye": 1269,
      "divan": 1270,
      "dari": 1271,
      "siine": 1272,
      "dekhe": 1273,
      "thiin": 1274,
      "gharib": 1275,
      "janta": 1276,
      "samne": 1277,
      "azma": 1278,
      "ake": 1279,
      "sharar": 1280,
      "suraj": 1281,
      "qatl": 1282,
      "tez": 1283,
      "chehra": 1284,
      "nishan": 1285,
      "dhuan": 1286,
      "maqam": 1287,
      "kafir": 1288,
      "qarar": 1289,
      "shaikh": 1290,
      "gunah": 1291,
      "begana": 1292,
      "fareb": 1293,
      "taghaful": 1294,
      "avar": 1295,
      "-nun": 1296,
      "-iha": 1297,
      "-bab": 1298,
      "naya": 1299,
      "maana": 1300,
      "bazar": 1301,
      "-isa": 1302,
      "tuk": 1303,
      "chahta": 1304,
      "khuub": 1305,
      "taqat": 1306,
      "vaan": 1307,
      "nihan": 1308,
      "dida": 1309,
      "daagh": 1310,
      "asan": 1311,
      "kahen": 1312,
      "barq": 1313,
      "gharaz": 1314,
      "-miyan": 1315,
      "-kayat": 1316,
      "khane": 1317,
      "itne": 1318,
      "zabt": 1319,
      "jamal": 1320,
      "faiz": 1321,
      "shikast": 1322,
      "imti": 1323,
      "khiram": 1324,
      "ghuncha": 1325,
      "yaqin": 1326,
      "hazrat": 1327,
      "naghma": 1328,
      "sayyad": 1329,
      "aq": 1330,
      "dahr": 1331,
      "ikhti": 1332,
      "jang": 1333,
      "lala": 1334,
      "pir": 1335,
      "shan": 1336,
      "tish": 1337,
      "ub": 1338,
      "-avv": 1339,
      "-lon": 1340,
      "-zr": 1341,
      "-bani": 1342,
      "-fir": 1343,
      "kahe": 1344,
      "-shni": 1345,
      "bach": 1346,
      "bacha": 1347,
      "-khta": 1348,
      "-ure": 1349,
      "-tak": 1350,
      "karne": 1351,
      "dilon": 1352,
      "mub": 1353,
      "tuu": 1354,
      "khali": 1355,
      "vaa": 1356,
      "thahar": 1357,
      "rahgu": 1358,
      "nib": 1359,
      "-gahi": 1360,
      "sabab": 1361,
      "dub": 1362,
      "chha": 1363,
      "tarz": 1364,
      "utt": 1365,
      "ruk": 1366,
      "barbad": 1367,
      "mard": 1368,
      "saka": 1369,
      "azi": 1370,
      "akbar": 1371,
      "hasin": 1372,
      "-shid": 1373,
      "khanjar": 1374,
      "zarra": 1375,
      "tasavv": 1376,
      "chuka": 1377,
      "sanam": 1378,
      "dastan": 1379,
      "rasm": 1380,
      "talash": 1381,
      "raushni": 1382,
      "andhe": 1383,
      "mohsin": 1384,
      "valon": 1385,
      "tishna": 1386,
      "rahguzar": 1387,
      "das": 1388,
      "hur": 1389,
      "iman": 1390,
      "miyan": 1391,
      "pan": 1392,
      "rut": 1393,
      "vatan": 1394,
      "zan": 1395,
      "-yo": 1396,
      "-ughan": 1397,
      "-vah": 1398,
      "hairan": 1399,
      "nala": 1400,
      "kin": 1401,
      "kahi": 1402,
      "kaash": 1403,
      "-yaban": 1404,
      "jalib": 1405,
      "sakht": 1406,
      "baja": 1407,
      "bayaban": 1408,
      "raaz": 1409,
      "mut": 1410,
      "tuut": 1411,
      "chamak": 1412,
      "taj": 1413,
      "parvana": 1414,
      "rahte": 1415,
      "paira": 1416,
      "kise": 1417,
      "pesh": 1418,
      "-arib": 1419,
      "rahat": 1420,
      "takall": 1421,
      "aksar": 1422,
      "basar": 1423,
      "basti": 1424,
      "bhari": 1425,
      "bhula": 1426,
      "rakhta": 1427,
      "puchho": 1428,
      "nashin": 1429,
      "goya": 1430,
      "intiha": 1431,
      "ghazab": 1432,
      "ilti": 1433,
      "kaisa": 1434,
      "musk": 1435,
      "shikva": 1436,
      "raqib": 1437,
      "siyah": 1438,
      "niyaz": 1439,
      "ikhtiyar": 1440,
      "tasavvur": 1441,
      "gan": 1442,
      "ib": 1443,
      "nar": 1444,
      "qarib": 1445,
      "yun": 1446,
      "yad": 1447,
      "zid": 1448,
      "-gam": 1449,
      "-son": 1450,
      "-lu": 1451,
      "-yyat": 1452,
      "-hgan": 1453,
      "-ram": 1454,
      "-fta": 1455,
      "-chi": 1456,
      "haus": 1457,
      "nakh": 1458,
      "nadan": 1459,
      "kade": 1460,
      "saaya": 1461,
      "salamat": 1462,
      "mad": 1463,
      "badi": 1464,
      "hogi": 1465,
      "-ulat": 1466,
      "khair": 1467,
      "khafa": 1468,
      "kusha": 1469,
      "ghafil": 1470,
      "-vafa": 1471,
      "raho": 1472,
      "payam": 1473,
      "betab": 1474,
      "bevafa": 1475,
      "hargi": 1476,
      "bahr": 1477,
      "chhed": 1478,
      "garche": 1479,
      "-diyon": 1480,
      "badh": 1481,
      "nazuk": 1482,
      "qadr": 1483,
      "shisha": 1484,
      "shikayat": 1485,
      "arzu": 1486,
      "girya": 1487,
      "zulm": 1488,
      "bhul": 1489,
      "paiman": 1490,
      "matl": 1491,
      "meh": 1492,
      "vasim": 1493,
      "hangam": 1494,
      "masti": 1495,
      "guzri": 1496,
      "bujh": 1497,
      "khamosh": 1498,
      "anjam": 1499,
      "tibar": 1500,
      "nashsha": 1501,
      "majnun": 1502,
      "dhundte": 1503,
      "rakkha": 1504,
      "misl": 1505,
      "avara": 1506,
      "qaba": 1507,
      "iyega": 1508,
      "patthar": 1509,
      "miza": 1510,
      "khalvat": 1511,
      "mizhgan": 1512,
      "musafir": 1513,
      "bichhad": 1514,
      "avargi": 1515,
      "aql": 1516,
      "pairahan": 1517,
      "yunhi": 1518,
      "hargiz": 1519,
      "dab": 1520,
      "dhar": 1521,
      "duun": 1522,
      "fughan": 1523,
      "iq": 1524,
      "lad": 1525,
      "numa": 1526,
      "sula": 1527,
      "ur": 1528,
      "-ite": 1529,
      "-uda": 1530,
      "-dari": 1531,
      "-kam": 1532,
      "haya": 1533,
      "nashat": 1534,
      "kitab": 1535,
      "jagah": 1536,
      "sahab": 1537,
      "saval": 1538,
      "raa": 1539,
      "karvan": 1540,
      "-asi": 1541,
      "-ass": 1542,
      "chak": 1543,
      "khauf": 1544,
      "paate": 1545,
      "dima": 1546,
      "ang": 1547,
      "kahne": 1548,
      "guft": 1549,
      "milne": 1550,
      "zahid": 1551,
      "banda": 1552,
      "mange": 1553,
      "manind": 1554,
      "pahchan": 1555,
      "qafas": 1556,
      "bikhar": 1557,
      "baton": 1558,
      "adab": 1559,
      "chuke": 1560,
      "naseh": 1561,
      "fais": 1562,
      "-ghaz": 1563,
      "rukhsat": 1564,
      "anjuman": 1565,
      "udaas": 1566,
      "khel": 1567,
      "bujha": 1568,
      "saans": 1569,
      "khurshid": 1570,
      "pinhan": 1571,
      "jangal": 1572,
      "takalluf": 1573,
      "matlab": 1574,
      "mizaj": 1575,
      "aam": 1576,
      "bhe": 1577,
      "jani": 1578,
      "talak": 1579,
      "zahr": 1580,
      "-zir": 1581,
      "-fan": 1582,
      "-vi": 1583,
      "-vari": 1584,
      "jaam": 1585,
      "javan": 1586,
      "javani": 1587,
      "sail": 1588,
      "baaz": 1589,
      "-dap": 1590,
      "-tal": 1591,
      "rasa": 1592,
      "mul": 1593,
      "shahid": 1594,
      "dega": 1595,
      "chali": 1596,
      "tadap": 1597,
      "him": 1598,
      "laf": 1599,
      "nigar": 1600,
      "darmiyan": 1601,
      "ped": 1602,
      "sikha": 1603,
      "dekhta": 1604,
      "phirte": 1605,
      "tumhin": 1606,
      "-lif": 1607,
      "aish": 1608,
      "duub": 1609,
      "guhar": 1610,
      "garmi": 1611,
      "khvar": 1612,
      "jiine": 1613,
      "-ust": 1614,
      "marne": 1615,
      "kahani": 1616,
      "pahlu": 1617,
      "nigahon": 1618,
      "-kash": 1619,
      "big": 1620,
      "bimar": 1621,
      "zarur": 1622,
      "puchhte": 1623,
      "-ufta": 1624,
      "farma": 1625,
      "vaste": 1626,
      "sukut": 1627,
      "sahil": 1628,
      "banaya": 1629,
      "jinhen": 1630,
      "vahm": 1631,
      "masiha": 1632,
      "kitni": 1633,
      "musal": 1634,
      "shukr": 1635,
      "tiir": 1636,
      "rakkhe": 1637,
      "pahunche": 1638,
      "fitrat": 1639,
      "rishta": 1640,
      "muqad": 1641,
      "jurm": 1642,
      "shirin": 1643,
      "akela": 1644,
      "faisla": 1645,
      "'-": 1646,
      "ay": 1647,
      "ana": 1648,
      "chin": 1649,
      "dur": 1650,
      "dal": 1651,
      "dad": 1652,
      "fana": 1653,
      "ge": 1654,
      "hir": 1655,
      "hina": 1656,
      "mina": 1657,
      "pha": 1658,
      "sat": 1659,
      "tur": 1660,
      "ziya": 1661,
      "-ugu": 1662,
      "-dir": 1663,
      "-ru": 1664,
      "-tir": 1665,
      "-oshi": 1666,
      "-zur": 1667,
      "-bra": 1668,
      "naf": 1669,
      "navaz": 1670,
      "-ahe": 1671,
      "koshish": 1672,
      "saya": 1673,
      "-inda": 1674,
      "bagh": 1675,
      "-alli": 1676,
      "dilbar": 1677,
      "mula": 1678,
      "-asta": 1679,
      "chad": 1680,
      "khuban": 1681,
      "khas": 1682,
      "parvaz": 1683,
      "thahr": 1684,
      "ghadi": 1685,
      "mujhi": 1686,
      "rahen": 1687,
      "laaya": 1688,
      "darkar": 1689,
      "pech": 1690,
      "dekhun": 1691,
      "dekhne": 1692,
      "likha": 1693,
      "sabza": 1694,
      "-lim": 1695,
      "tarab": 1696,
      "gulistan": 1697,
      "barpa": 1698,
      "badla": 1699,
      "sakte": 1700,
      "qaa": 1701,
      "qais": 1702,
      "nazr": 1703,
      "shikar": 1704,
      "lagti": 1705,
      "aftab": 1706,
      "taskin": 1707,
      "khila": 1708,
      "sanvar": 1709,
      "samajhte": 1710,
      "tumhari": 1711,
      "nikalti": 1712,
      "dena": 1713,
      "sauda": 1714,
      "pahuncha": 1715,
      "abru": 1716,
      "-urdagi": 1717,
      "jitna": 1718,
      "jitne": 1719,
      "raten": 1720,
      "jazb": 1721,
      "rone": 1722,
      "sarapa": 1723,
      "imtihan": 1724,
      "aziiz": 1725,
      "dimagh": 1726,
      "guftugu": 1727,
      "himmat": 1728,
      "lafz": 1729,
      "aza": 1730,
      "bari": 1731,
      "fan": 1732,
      "juun": 1733,
      "jum": 1734,
      "min": 1735,
      "py": 1736,
      "rind": 1737,
      "sata": 1738,
      "umid": 1739,
      "ze": 1740,
      "-gal": 1741,
      "-iq": 1742,
      "-jum": 1743,
      "-zam": 1744,
      "-bur": 1745,
      "naala": 1746,
      "naale": 1747,
      "kidhar": 1748,
      "kiran": 1749,
      "kalam": 1750,
      "kaif": 1751,
      "jaur": 1752,
      "sair": 1753,
      "safa": 1754,
      "baagh": 1755,
      "hujum": 1756,
      "aao": 1757,
      "hamdam": 1758,
      "dila": 1759,
      "gauhar": 1760,
      "deti": 1761,
      "vahin": 1762,
      "paras": 1763,
      "kucha": 1764,
      "nim": 1765,
      "pak": 1766,
      "bedad": 1767,
      "ande": 1768,
      "dahan": 1769,
      "daulat": 1770,
      "thik": 1771,
      "mili": 1772,
      "gardan": 1773,
      "barg": 1774,
      "baras": 1775,
      "badha": 1776,
      "samt": 1777,
      "mahshar": 1778,
      "rangin": 1779,
      "jalve": 1780,
      "azal": 1781,
      "nazm": 1782,
      "sahl": 1783,
      "aram": 1784,
      "arman": 1785,
      "giran": 1786,
      "charkh": 1787,
      "honton": 1788,
      "ashiqi": 1789,
      "khizan": 1790,
      "baitha": 1791,
      "bol": 1792,
      "maqtal": 1793,
      "tumhara": 1794,
      "butan": 1795,
      "dene": 1796,
      "qissa": 1797,
      "faqir": 1798,
      "hunuz": 1799,
      "misal": 1800,
      "fitna": 1801,
      "lena": 1802,
      "bismil": 1803,
      "malum": 1804,
      "viran": 1805,
      "mizha": 1806,
      "qalam": 1807,
      "sirf": 1808,
      "ganva": 1809,
      "hausla": 1810,
      "ziyada": 1811,
      "mulaqat": 1812,
      "thahri": 1813,
      "ag": 1814,
      "ava": 1815,
      "cho": 1816,
      "dhan": 1817,
      "dhal": 1818,
      "gari": 1819,
      "gale": 1820,
      "gure": 1821,
      "iyan": 1822,
      "just": 1823,
      "kun": 1824,
      "kul": 1825,
      "mata": 1826,
      "qam": 1827,
      "riz": 1828,
      "sina": 1829,
      "tad": 1830,
      "tang": 1831,
      "umi": 1832,
      "zeh": 1833,
      "-aza": 1834,
      "-esha": 1835,
      "-kta": 1836,
      "-kon": 1837,
      "-ze": 1838,
      "-flat": 1839,
      "-pe": 1840,
      "nakam": 1841,
      "kijiye": 1842,
      "kada": 1843,
      "kami": 1844,
      "kashi": 1845,
      "sali": 1846,
      "saqi": 1847,
      "-ile": 1848,
      "maara": 1849,
      "hove": 1850,
      "raun": 1851,
      "ravan": 1852,
      "ravish": 1853,
      "hamesha": 1854,
      "-isi": 1855,
      "-ist": 1856,
      "musht": 1857,
      "-abi": 1858,
      "dekhi": 1859,
      "chain": 1860,
      "chaak": 1861,
      "taz": 1862,
      "taar": 1863,
      "parva": 1864,
      "kuche": 1865,
      "ghabra": 1866,
      "ghaflat": 1867,
      "rahne": 1868,
      "lau": 1869,
      "dikh": 1870,
      "-gari": 1871,
      "angan": 1872,
      "-arak": 1873,
      "sifat": 1874,
      "daam": 1875,
      "phiri": 1876,
      "aib": 1877,
      "chhin": 1878,
      "milti": 1879,
      "uthe": 1880,
      "uthta": 1881,
      "-faq": 1882,
      "-shad": 1883,
      "sune": 1884,
      "dinon": 1885,
      "qaza": 1886,
      "qaid": 1887,
      "qafil": 1888,
      "kamal": 1889,
      "-uju": 1890,
      "ashufta": 1891,
      "khanda": 1892,
      "labon": 1893,
      "tabass": 1894,
      "khatm": 1895,
      "-ved": 1896,
      "chandni": 1897,
      "tasir": 1898,
      "chhoda": 1899,
      "havaon": 1900,
      "gosh": 1901,
      "ulti": 1902,
      "munta": 1903,
      "khil": 1904,
      "khizr": 1905,
      "sann": 1906,
      "fasana": 1907,
      "-suon": 1908,
      "maqs": 1909,
      "dushmani": 1910,
      "ehti": 1911,
      "qarari": 1912,
      "hazaron": 1913,
      "mitti": 1914,
      "zor": 1915,
      "bistar": 1916,
      "ilaaj": 1917,
      "puchhe": 1918,
      "ghurur": 1919,
      "muskura": 1920,
      "justuju": 1921,
      "zehn": 1922,
      "tabassum": 1923,
      "denge": 1924,
      "fis": 1925,
      "jha": 1926,
      "luun": 1927,
      "qub": 1928,
      "til": 1929,
      "yus": 1930,
      "zun": 1931,
      "zad": 1932,
      "-ada": 1933,
      "-ik": 1934,
      "-ibat": 1935,
      "-iyat": 1936,
      "-hbat": 1937,
      "-os": 1938,
      "-oh": 1939,
      "-bal": 1940,
      "-bish": 1941,
      "-vara": 1942,
      "-vane": 1943,
      "-qe": 1944,
      "hali": 1945,
      "-hak": 1946,
      "kas": 1947,
      "sal": 1948,
      "sap": 1949,
      "sadiyon": 1950,
      "-iri": 1951,
      "-khon": 1952,
      "huzur": 1953,
      "toh": 1954,
      "-alo": 1955,
      "-ism": 1956,
      "mum": 1957,
      "tufan": 1958,
      "shag": 1959,
      "khule": 1960,
      "khubi": 1961,
      "taur": 1962,
      "taab": 1963,
      "vada": 1964,
      "parde": 1965,
      "-lak": 1966,
      "ghata": 1967,
      "rahn": 1968,
      "rahna": 1969,
      "rahzan": 1970,
      "did": 1971,
      "auron": 1972,
      "harif": 1973,
      "daf": 1974,
      "dair": 1975,
      "daftar": 1976,
      "lik": 1977,
      "lib": 1978,
      "kabhu": 1979,
      "chhan": 1980,
      "milte": 1981,
      "taklif": 1982,
      "utna": 1983,
      "zada": 1984,
      "nazara": 1985,
      "sohbat": 1986,
      "janen": 1987,
      "manzar": 1988,
      "shabab": 1989,
      "mahv": 1990,
      "mahram": 1991,
      "suno": 1992,
      "sunte": 1993,
      "jalte": 1994,
      "nigahen": 1995,
      "aziz": 1996,
      "kamar": 1997,
      "shikan": 1998,
      "surma": 1999,
      "girah": 2000,
      "shams": 2001,
      "tabah": 2002,
      "bazi": 2003,
      "halqa": 2004,
      "faro": 2005,
      "sukun": 2006,
      "dushvar": 2007,
      "guzra": 2008,
      "buu": 2009,
      "khamoshi": 2010,
      "buland": 2011,
      "khulta": 2012,
      "bosa": 2013,
      "musibat": 2014,
      "badalte": 2015,
      "ret": 2016,
      "sheva": 2017,
      "saaf": 2018,
      "nashe": 2019,
      "pasand": 2020,
      "avval": 2021,
      "palat": 2022,
      "kashti": 2023,
      "afsana": 2024,
      "sharminda": 2025,
      "murad": 2026,
      "murgh": 2027,
      "pareshani": 2028,
      "raton": 2029,
      "muqab": 2030,
      "fariyad": 2031,
      "luut": 2032,
      "sajan": 2033,
      "vajud": 2034,
      "giraftar": 2035,
      "-halak": 2036,
      "mubarak": 2037,
      "ayyam": 2038,
      "jumbish": 2039,
      "minnat": 2040,
      "umiid": 2041,
      "qubul": 2042,
      "yusuf": 2043,
      "zunn": 2044,
      "akh": 2045,
      "azar": 2046,
      "agahi": 2047,
      "bina": 2048,
      "dana": 2049,
      "gin": 2050,
      "ine": 2051,
      "jhan": 2052,
      "nu": 2053,
      "nang": 2054,
      "nuq": 2055,
      "uq": 2056,
      "ula": 2057,
      "vus": 2058,
      "zi": 2059,
      "-non": 2060,
      "-gun": 2061,
      "-gis": 2062,
      "-ghal": 2063,
      "-sti": 2064,
      "-jli": 2065,
      "-zib": 2066,
      "-andi": 2067,
      "naha": 2068,
      "kaan": 2069,
      "jaad": 2070,
      "jaga": 2071,
      "jale": 2072,
      "jaisa": 2073,
      "sav": 2074,
      "saara": 2075,
      "may": 2076,
      "mazar": 2077,
      "magh": 2078,
      "malamat": 2079,
      "bahal": 2080,
      "baqa": 2081,
      "huk": 2082,
      "rahin": 2083,
      "rava": 2084,
      "aahat": 2085,
      "muam": 2086,
      "musta": 2087,
      "mushta": 2088,
      "gada": 2089,
      "shad": 2090,
      "shak": 2091,
      "cham": 2092,
      "chaun": 2093,
      "khum": 2094,
      "khub": 2095,
      "tai": 2096,
      "taqa": 2097,
      "-ulan": 2098,
      "vagar": 2099,
      "vaalo": 2100,
      "thak": 2101,
      "-lahat": 2102,
      "rahmat": 2103,
      "laut": 2104,
      "lakht": 2105,
      "lakhon": 2106,
      "nigahi": 2107,
      "beh": 2108,
      "bedar": 2109,
      "diin": 2110,
      "diid": 2111,
      "-uth": 2112,
      "andar": 2113,
      "sip": 2114,
      "sitar": 2115,
      "daad": 2116,
      "daana": 2117,
      "ishara": 2118,
      "ishare": 2119,
      "phirta": 2120,
      "sarab": 2121,
      "dus": 2122,
      "ungi": 2123,
      "jaag": 2124,
      "leta": 2125,
      "khvan": 2126,
      "jabin": 2127,
      "bade": 2128,
      "badle": 2129,
      "-ushi": 2130,
      "jannat": 2131,
      "agarche": 2132,
      "aks": 2133,
      "shola": 2134,
      "rote": 2135,
      "sahba": 2136,
      "bijli": 2137,
      "khushk": 2138,
      "bhule": 2139,
      "nasir": 2140,
      "padi": 2141,
      "padh": 2142,
      "paikar": 2143,
      "farhad": 2144,
      "ashiyan": 2145,
      "masj": 2146,
      "maslahat": 2147,
      "maujud": 2148,
      "khamushi": 2149,
      "amal": 2150,
      "nisar": 2151,
      "nisbat": 2152,
      "mehrbani": 2153,
      "reza": 2154,
      "iztir": 2155,
      "rabt": 2156,
      "raqam": 2157,
      "likhun": 2158,
      "afsos": 2159,
      "lamha": 2160,
      "tahzib": 2161,
      "ilahi": 2162,
      "thodi": 2163,
      "ujala": 2164,
      "charaghan": 2165,
      "dhoka": 2166,
      "ghurbat": 2167,
      "nargis": 2168,
      "hangama": 2169,
      "musalman": 2170,
      "muqaddar": 2171,
      "nafrat": 2172,
      "azaab": 2173,
      "gurezan": 2174,
      "raunaq": 2175,
      "dikhla": 2176,
      "muntazir": 2177,
      "mumkin": 2178,
      "shamshir": 2179,
      "muqabil": 2180,
      "zunnar": 2181,
      "ulajh": 2182,
      "jaadu": 2183,
      "mushtaq": 2184,
      "taqaza": 2185,
      "vagarna": 2186,
      "iztirab": 2187,
      "agh": 2188,
      "aghaz": 2189,
      "bhed": 2190,
      "egan": 2191,
      "fara": 2192,
      "fus": 2193,
      "jy": 2194,
      "jhon": 2195,
      "nur": 2196,
      "num": 2197,
      "pil": 2198,
      "piya": 2199,
      "ram": 2200,
      "sil": 2201,
      "sul": 2202,
      "sari": 2203,
      "uch": 2204,
      "ziyan": 2205,
      "zist": 2206,
      "-no": 2207,
      "-gani": 2208,
      "-sal": 2209,
      "-sari": 2210,
      "-yana": 2211,
      "-yyar": 2212,
      "-mon": 2213,
      "-jj": 2214,
      "-jat": 2215,
      "-rib": 2216,
      "-tu": 2217,
      "-kno": 2218,
      "-bari": 2219,
      "-fl": 2220,
      "-fr": 2221,
      "-vvat": 2222,
      "-ckno": 2223,
      "nab": 2224,
      "nagar": 2225,
      "kaa": 2226,
      "saq": 2227,
      "said": 2228,
      "bam": 2229,
      "baad": 2230,
      "bachch": 2231,
      "bashar": 2232,
      "raza": 2233,
      "karish": 2234,
      "karenge": 2235,
      "mukh": 2236,
      "tut": 2237,
      "gavara": 2238,
      "-adi": 2239,
      "chaha": 2240,
      "khuli": 2241,
      "khusha": 2242,
      "khumar": 2243,
      "khasta": 2244,
      "para": 2245,
      "parsa": 2246,
      "kushta": 2247,
      "kufr": 2248,
      "paar": 2249,
      "paim": 2250,
      "digar": 2251,
      "dijiye": 2252,
      "ansuon": 2253,
      "sim": 2254,
      "sid": 2255,
      "siin": 2256,
      "ise": 2257,
      "isti": 2258,
      "daa": 2259,
      "daal": 2260,
      "phire": 2261,
      "lip": 2262,
      "dukan": 2263,
      "unvan": 2264,
      "chura": 2265,
      "guftar": 2266,
      "taron": 2267,
      "-zakh": 2268,
      "sum": 2269,
      "khvah": 2270,
      "jivan": 2271,
      "jiina": 2272,
      "uthte": 2273,
      "ruuth": 2274,
      "enat": 2275,
      "gulab": 2276,
      "moti": 2277,
      "barab": 2278,
      "marte": 2279,
      "marham": 2280,
      "janab": 2281,
      "mans": 2282,
      "saki": 2283,
      "mahtab": 2284,
      "pahc": 2285,
      "-haba": 2286,
      "-ishen": 2287,
      "shart": 2288,
      "bhare": 2289,
      "bii": 2290,
      "-chal": 2291,
      "ahval": 2292,
      "chalta": 2293,
      "mohabbaton": 2294,
      "zaruri": 2295,
      "zulmat": 2296,
      "inayat": 2297,
      "chuki": 2298,
      "khari": 2299,
      "paigha": 2300,
      "guzarne": 2301,
      "yaron": 2302,
      "matam": 2303,
      "ulj": 2304,
      "sahib": 2305,
      "sitara": 2306,
      "sitare": 2307,
      "baith": 2308,
      "ghairat": 2309,
      "bula": 2310,
      "samajhta": 2311,
      "mehrban": 2312,
      "anjum": 2313,
      "shumar": 2314,
      "hansi": 2315,
      "raftar": 2316,
      "sochta": 2317,
      "majbur": 2318,
      "jhuk": 2319,
      "udasi": 2320,
      "mastana": 2321,
      "raqs": 2322,
      "fitne": 2323,
      "alluq": 2324,
      "mita": 2325,
      "bakhsh": 2326,
      "khinchta": 2327,
      "bujhe": 2328,
      "taqdir": 2329,
      "kohkan": 2330,
      "luckno": 2331,
      "thokar": 2332,
      "uthti": 2333,
      "tavaf": 2334,
      "aabru": 2335,
      "divanon": 2336,
      "divangi": 2337,
      "shanas": 2338,
      "utthe": 2339,
      "dastar": 2340,
      "panch": 2341,
      "iltifat": 2342,
      "mehman": 2343,
      "bigad": 2344,
      "pyare": 2345,
      "rizq": 2346,
      "rahnuma": 2347,
      "libas": 2348,
      "nuur": 2349,
      "mayus": 2350,
      "shakl": 2351,
      "behtar": 2352,
      "fusun": 2353,
      "jyuun": 2354,
      "paimana": 2355,
      "paigham": 2356,
      "lucknow": 2357,
      "ama": 2358,
      "bho": 2359,
      "bud": 2360,
      "dah": 2361,
      "dani": 2362,
      "em": 2363,
      "fi": 2364,
      "ghani": 2365,
      "jhalak": 2366,
      "lal": 2367,
      "phe": 2368,
      "panj": 2369,
      "palak": 2370,
      "qi": 2371,
      "ri": 2372,
      "rin": 2373,
      "rida": 2374,
      "sanj": 2375,
      "uzr": 2376,
      "vab": 2377,
      "-af": 2378,
      "-nabi": 2379,
      "-sas": 2380,
      "-yani": 2381,
      "-mas": 2382,
      "-dh": 2383,
      "-don": 2384,
      "-tani": 2385,
      "-kir": 2386,
      "-zish": 2387,
      "haar": 2388,
      "-hil": 2389,
      "-hit": 2390,
      "nag": 2391,
      "naza": 2392,
      "namak": 2393,
      "kaman": 2394,
      "kaghaz": 2395,
      "-und": 2396,
      "mahak": 2397,
      "baab": 2398,
      "baare": 2399,
      "bakht": 2400,
      "-khl": 2401,
      "-dak": 2402,
      "huur": 2403,
      "-tala": 2404,
      "rakha": 2405,
      "bhig": 2406,
      "karni": 2407,
      "dili": 2408,
      "muz": 2409,
      "mukar": 2410,
      "gaanv": 2411,
      "gaahe": 2412,
      "shadi": 2413,
      "shake": 2414,
      "shajar": 2415,
      "-asr": 2416,
      "-asim": 2417,
      "chahat": 2418,
      "ustu": 2419,
      "tavan": 2420,
      "taaza": 2421,
      "khaz": 2422,
      "khaar": 2423,
      "vaar": 2424,
      "aba": 2425,
      "rahm": 2426,
      "rahun": 2427,
      "rahbar": 2428,
      "laila": 2429,
      "lauh": 2430,
      "pagal": 2431,
      "bech": 2432,
      "divane": 2433,
      "dars": 2434,
      "darman": 2435,
      "daraz": 2436,
      "siina": 2437,
      "isa": 2438,
      "lijiye": 2439,
      "-liyan": 2440,
      "asa": 2441,
      "asi": 2442,
      "astin": 2443,
      "sard": 2444,
      "sarv": 2445,
      "unga": 2446,
      "chun": 2447,
      "kahti": 2448,
      "gudaz": 2449,
      "takrar": 2450,
      "lega": 2451,
      "sukh": 2452,
      "jiye": 2453,
      "jiite": 2454,
      "-shak": 2455,
      "mom": 2456,
      "dosti": 2457,
      "nikl": 2458,
      "bandi": 2459,
      "marta": 2460,
      "marna": 2461,
      "sozan": 2462,
      "rahega": 2463,
      "inkar": 2464,
      "samar": 2465,
      "zindagani": 2466,
      "azm": 2467,
      "akasr": 2468,
      "nazzar": 2469,
      "nazdi": 2470,
      "rok": 2471,
      "shishe": 2472,
      "bikh": 2473,
      "chalte": 2474,
      "arsh": 2475,
      "arsa": 2476,
      "surur": 2477,
      "lagte": 2478,
      "vaqi": 2479,
      "zard": 2480,
      "zarre": 2481,
      "maidan": 2482,
      "khatra": 2483,
      "khatre": 2484,
      "afshan": 2485,
      "tasalli": 2486,
      "puchhta": 2487,
      "ajal": 2488,
      "ajnabi": 2489,
      "adavat": 2490,
      "nasim": 2491,
      "padta": 2492,
      "paiham": 2493,
      "adu": 2494,
      "talvar": 2495,
      "talib": 2496,
      "hanuz": 2497,
      "doston": 2498,
      "pyaas": 2499,
      "pyasa": 2500,
      "chhut": 2501,
      "hijran": 2502,
      "bandh": 2503,
      "bandhte": 2504,
      "naqab": 2505,
      "pich": 2506,
      "rozgar": 2507,
      "amir": 2508,
      "phulon": 2509,
      "bojh": 2510,
      "ilm": 2511,
      "nikalte": 2512,
      "charaghon": 2513,
      "kafan": 2514,
      "buton": 2515,
      "resha": 2516,
      "ehsas": 2517,
      "saada": 2518,
      "araq": 2519,
      "jhuka": 2520,
      "ashkon": 2521,
      "talabgar": 2522,
      "qabil": 2523,
      "likhna": 2524,
      "gumani": 2525,
      "khalq": 2526,
      "lamhon": 2527,
      "azadi": 2528,
      "qurb": 2529,
      "puchha": 2530,
      "tavajj": 2531,
      "ijz": 2532,
      "namaz": 2533,
      "mashq": 2534,
      "ubhar": 2535,
      "tuuta": 2536,
      "nibha": 2537,
      "kinara": 2538,
      "iqbal": 2539,
      "sulag": 2540,
      "angda": 2541,
      "mulk": 2542,
      "gesu": 2543,
      "hirs": 2544,
      "phail": 2545,
      "nazren": 2546,
      "barish": 2547,
      "andesha": 2548,
      "saliqa": 2549,
      "sannata": 2550,
      "maqsud": 2551,
      "ehtiyat": 2552,
      "tohmat": 2553,
      "dafn": 2554,
      "buujh": 2555,
      "sitaron": 2556,
      "masjid": 2557,
      "aghyar": 2558,
      "bachchon": 2559,
      "kharidar": 2560,
      "ghanimat": 2561,
      "tavajjoh": 2562,
      "ahu": 2563,
      "aman": 2564,
      "aari": 2565,
      "aqi": 2566,
      "buun": 2567,
      "dhad": 2568,
      "eid": 2569,
      "he": 2570,
      "hil": 2571,
      "hind": 2572,
      "iyon": 2573,
      "lenge": 2574,
      "mari": 2575,
      "mang": 2576,
      "mura": 2577,
      "no": 2578,
      "po": 2579,
      "pila": 2580,
      "qib": 2581,
      "riya": 2582,
      "tim": 2583,
      "tahr": 2584,
      "uf": 2585,
      "ush": 2586,
      "uup": 2587,
      "vale": 2588,
      "-ach": 2589,
      "-sib": 2590,
      "-rud": 2591,
      "-kul": 2592,
      "-br": 2593,
      "-bir": 2594,
      "-pan": 2595,
      "-arat": 2596,
      "hab": 2597,
      "-angi": 2598,
      "nair": 2599,
      "nadi": 2600,
      "nashad": 2601,
      "naved": 2602,
      "kaj": 2603,
      "kate": 2604,
      "kasha": 2605,
      "kashish": 2606,
      "-yaz": 2607,
      "jaun": 2608,
      "jash": 2609,
      "jaisi": 2610,
      "savab": 2611,
      "mam": 2612,
      "maane": 2613,
      "masa": 2614,
      "bahi": 2615,
      "baham": 2616,
      "baada": 2617,
      "-one": 2618,
      "raas": 2619,
      "rast": 2620,
      "aas": 2621,
      "aafat": 2622,
      "karb": 2623,
      "karan": 2624,
      "karda": 2625,
      "dilli": 2626,
      "muda": 2627,
      "muft": 2628,
      "tul": 2629,
      "shaad": 2630,
      "-tida": 2631,
      "chah": 2632,
      "chap": 2633,
      "chaah": 2634,
      "chaal": 2635,
      "chahte": 2636,
      "tahi": 2637,
      "tash": 2638,
      "tauf": 2639,
      "takht": 2640,
      "tayyar": 2641,
      "khaj": 2642,
      "khade": 2643,
      "khatar": 2644,
      "vaah": 2645,
      "vash": 2646,
      "vaise": 2647,
      "yaas": 2648,
      "thahra": 2649,
      "-laq": 2650,
      "ghash": 2651,
      "-vaza": 2652,
      "-vaida": 2653,
      "rahon": 2654,
      "lash": 2655,
      "bek": 2656,
      "beja": 2657,
      "diida": 2658,
      "darte": 2659,
      "darvaza": 2660,
      "-hosh": 2661,
      "anda": 2662,
      "ange": 2663,
      "dayar": 2664,
      "ishrat": 2665,
      "sabz": 2666,
      "astan": 2667,
      "sarf": 2668,
      "duk": 2669,
      "ung": 2670,
      "chhe": 2671,
      "-jhen": 2672,
      "milna": 2673,
      "takra": 2674,
      "suvaida": 2675,
      "jiit": 2676,
      "uthi": 2677,
      "-faqat": 2678,
      "-shaq": 2679,
      "gulzar": 2680,
      "zaat": 2681,
      "mohr": 2682,
      "mohta": 2683,
      "barsat": 2684,
      "barham": 2685,
      "barson": 2686,
      "dozakh": 2687,
      "nikli": 2688,
      "banta": 2689,
      "marhala": 2690,
      "marhaba": 2691,
      "marasim": 2692,
      "socha": 2693,
      "rahegi": 2694,
      "inq": 2695,
      "inan": 2696,
      "inhin": 2697,
      "zamir": 2698,
      "samjhen": 2699,
      "sakun": 2700,
      "suni": 2701,
      "sunta": 2702,
      "puk": 2703,
      "pukar": 2704,
      "jalta": 2705,
      "huiin": 2706,
      "qadah": 2707,
      "qadmon": 2708,
      "roya": 2709,
      "rota": 2710,
      "roke": 2711,
      "bichh": 2712,
      "-azat": 2713,
      "chalne": 2714,
      "surkh": 2715,
      "suragh": 2716,
      "dunga": 2717,
      "zarf": 2718,
      "itr": 2719,
      "afr": 2720,
      "taslim": 2721,
      "chashma": 2722,
      "chhode": 2723,
      "hongi": 2724,
      "-uba": 2725,
      "gor": 2726,
      "talkh": 2727,
      "talkhi": 2728,
      "tarash": 2729,
      "farda": 2730,
      "achchhe": 2731,
      "jins": 2732,
      "manzur": 2733,
      "akhiri": 2734,
      "ghairon": 2735,
      "bandha": 2736,
      "purane": 2737,
      "aadat": 2738,
      "bhatak": 2739,
      "pighal": 2740,
      "karobar": 2741,
      "yakta": 2742,
      "amad": 2743,
      "amla": 2744,
      "bole": 2745,
      "ghus": 2746,
      "ilzam": 2747,
      "khinchi": 2748,
      "qarz": 2749,
      "hanste": 2750,
      "rafu": 2751,
      "shaida": 2752,
      "socho": 2753,
      "nashtar": 2754,
      "jhuut": 2755,
      "sadgi": 2756,
      "avenge": 2757,
      "lene": 2758,
      "paash": 2759,
      "afsurda": 2760,
      "galiyon": 2761,
      "nauha": 2762,
      "karunga": 2763,
      "virani": 2764,
      "alag": 2765,
      "lamhe": 2766,
      "bakhsha": 2767,
      "muddaton": 2768,
      "rishte": 2769,
      "siyahi": 2770,
      "qalb": 2771,
      "valv": 2772,
      "qurbat": 2773,
      "sajda": 2774,
      "niyazi": 2775,
      "ujde": 2776,
      "tapak": 2777,
      "gardun": 2778,
      "ijazat": 2779,
      "rona": 2780,
      "akele": 2781,
      "gunahgar": 2782,
      "imtiyaz": 2783,
      "ubal": 2784,
      "tuute": 2785,
      "hasinon": 2786,
      "tajalli": 2787,
      "muskur": 2788,
      "ibrat": 2789,
      "nakhun": 2790,
      "betabi": 2791,
      "mehnat": 2792,
      "dhara": 2793,
      "iqrar": 2794,
      "baazu": 2795,
      "parastish": 2796,
      "thikana": 2797,
      "thikane": 2798,
      "tadbir": 2799,
      "tilism": 2800,
      "shaguf": 2801,
      "chhanv": 2802,
      "akhbar": 2803,
      "nuqsan": 2804,
      "uqda": 2805,
      "hukm": 2806,
      "chaunk": 2807,
      "uchhal": 2808,
      "saqiya": 2809,
      "barabar": 2810,
      "mansub": 2811,
      "panja": 2812,
      "nazdik": 2813,
      "pichhe": 2814,
      "buund": 2815,
      "muravvat": 2816,
      "tahrir": 2817,
      "ushshaq": 2818,
      "uupar": 2819,
      "kashakash": 2820,
      "jashn": 2821,
      "taufiq": 2822,
      "mohtasib": 2823,
      "ain": 2824,
      "ale": 2825,
      "ade": 2826,
      "bun": 2827,
      "bani": 2828,
      "buri": 2829,
      "el": 2830,
      "fah": 2831,
      "fal": 2832,
      "if": 2833,
      "ima": 2834,
      "ira": 2835,
      "iid": 2836,
      "ikht": 2837,
      "ibad": 2838,
      "iyo": 2839,
      "je": 2840,
      "lahr": 2841,
      "mana": 2842,
      "maraz": 2843,
      "phan": 2844,
      "pab": 2845,
      "pho": 2846,
      "phen": 2847,
      "phun": 2848,
      "phal": 2849,
      "qahr": 2850,
      "rul": 2851,
      "riha": 2852,
      "sane": 2853,
      "thu": 2854,
      "than": 2855,
      "tale": 2856,
      "vadi": 2857,
      "zil": 2858,
      "zuh": 2859,
      "-ap": 2860,
      "-ahi": 2861,
      "-ikh": 2862,
      "-iman": 2863,
      "-iza": 2864,
      "-idan": 2865,
      "-iyon": 2866,
      "-sil": 2867,
      "-sir": 2868,
      "-sus": 2869,
      "-sish": 2870,
      "-lah": 2871,
      "-yy": 2872,
      "-yun": 2873,
      "-huri": 2874,
      "-jaz": 2875,
      "-du": 2876,
      "-ddat": 2877,
      "-rir": 2878,
      "-ruba": 2879,
      "-thi": 2880,
      "-tah": 2881,
      "-tte": 2882,
      "-ken": 2883,
      "-khir": 2884,
      "-kira": 2885,
      "-zon": 2886,
      "-vam": 2887,
      "-venge": 2888,
      "-qq": 2889,
      "-qab": 2890,
      "habab": 2891,
      "-hami": 2892,
      "nai": 2893,
      "nain": 2894,
      "naji": 2895,
      "najat": 2896,
      "kir": 2897,
      "kaat": 2898,
      "kaab": 2899,
      "kali": 2900,
      "kale": 2901,
      "kasa": 2902,
      "kavish": 2903,
      "jada": 2904,
      "jaari": 2905,
      "jaoge": 2906,
      "javed": 2907,
      "jaulan": 2908,
      "saaz": 2909,
      "salam": 2910,
      "salib": 2911,
      "saja": 2912,
      "maar": 2913,
      "maare": 2914,
      "makr": 2915,
      "basa": 2916,
      "bahana": 2917,
      "hotin": 2918,
      "-dal": 2919,
      "hush": 2920,
      "-hum": 2921,
      "-tav": 2922,
      "karvat": 2923,
      "-alab": 2924,
      "dilruba": 2925,
      "muhal": 2926,
      "mughan": 2927,
      "mukhta": 2928,
      "muhit": 2929,
      "tuun": 2930,
      "gaam": 2931,
      "gahan": 2932,
      "gashta": 2933,
      "shahi": 2934,
      "shafaq": 2935,
      "-ase": 2936,
      "-ade": 2937,
      "chadar": 2938,
      "-ere": 2939,
      "khus": 2940,
      "taare": 2941,
      "tauq": 2942,
      "khaa": 2943,
      "khate": 2944,
      "khati": 2945,
      "vaz": 2946,
      "vaf": 2947,
      "abas": 2948,
      "paron": 2949,
      "parast": 2950,
      "partav": 2951,
      "nek": 2952,
      "kushi": 2953,
      "thaam": 2954,
      "ghaur": 2955,
      "lagh": 2956,
      "nikhar": 2957,
      "paak": 2958,
      "pahad": 2959,
      "beb": 2960,
      "beach": 2961,
      "dikhe": 2962,
      "-garm": 2963,
      "dare": 2964,
      "-yega": 2965,
      "kisu": 2966,
      "anis": 2967,
      "angu": 2968,
      "-mane": 2969,
      "ista": 2970,
      "davat": 2971,
      "davam": 2972,
      "ishva": 2973,
      "phirti": 2974,
      "-maya": 2975,
      "asrar": 2976,
      "sargarm": 2977,
      "dud": 2978,
      "chur": 2979,
      "chhal": 2980,
      "ghamza": 2981,
      "jaave": 2982,
      "sud": 2983,
      "sup": 2984,
      "-khab": 2985,
      "khvari": 2986,
      "-diyan": 2987,
      "uthane": 2988,
      "-hrat": 2989,
      "ruke": 2990,
      "barat": 2991,
      "badban": 2992,
      "badnam": 2993,
      "zinat": 2994,
      "bano": 2995,
      "banti": 2996,
      "-usar": 2997,
      "sote": 2998,
      "gharat": 2999,
      "insa": 3000,
      "zaman": 3001,
      "manus": 3002,
      "sunane": 3003,
      "pusht": 3004,
      "jalne": 3005,
      "azurda": 3006,
      "nazron": 3007,
      "shori": 3008,
      "shohrat": 3009,
      "-atiyan": 3010,
      "sharh": 3011,
      "sharma": 3012,
      "kamin": 3013,
      "kamil": 3014,
      "roti": 3015,
      "basta": 3016,
      "shiddat": 3017,
      "bharo": 3018,
      "bharam": 3019,
      "-chak": 3020,
      "ahbab": 3021,
      "jaano": 3022,
      "chalna": 3023,
      "chalti": 3024,
      "arbab": 3025,
      "girte": 3026,
      "aanch": 3027,
      "charcha": 3028,
      "chang": 3029,
      "zabani": 3030,
      "khatt": 3031,
      "rakhun": 3032,
      "batate": 3033,
      "taskhir": 3034,
      "subuk": 3035,
      "tangi": 3036,
      "bazu": 3037,
      "karega": 3038,
      "padti": 3039,
      "hont": 3040,
      "paikan": 3041,
      "fakh": 3042,
      "farq": 3043,
      "hansa": 3044,
      "zulfan": 3045,
      "vahshi": 3046,
      "khvabon": 3047,
      "zakhmon": 3048,
      "naqd": 3049,
      "naqsha": 3050,
      "manzilen": 3051,
      "purana": 3052,
      "pursish": 3053,
      "dikhaya": 3054,
      "bulandi": 3055,
      "intikhab": 3056,
      "nishani": 3057,
      "dhunde": 3058,
      "ghulam": 3059,
      "milega": 3060,
      "rukhsar": 3061,
      "kharabi": 3062,
      "kharabat": 3063,
      "khinche": 3064,
      "shua": 3065,
      "tifl": 3066,
      "hansne": 3067,
      "izzat": 3068,
      "dhundhta": 3069,
      "balin": 3070,
      "pahunch": 3071,
      "likhte": 3072,
      "afsane": 3073,
      "batao": 3074,
      "khirad": 3075,
      "khirman": 3076,
      "dauran": 3077,
      "gahra": 3078,
      "khez": 3079,
      "patta": 3080,
      "udne": 3081,
      "zof": 3082,
      "naubat": 3083,
      "khaksari": 3084,
      "bisat": 3085,
      "hisse": 3086,
      "namrud": 3087,
      "malal": 3088,
      "mazaq": 3089,
      "jitni": 3090,
      "virana": 3091,
      "ummiden": 3092,
      "bakhshi": 3093,
      "kanar": 3094,
      "rishton": 3095,
      "hazir": 3096,
      "andhi": 3097,
      "mohlat": 3098,
      "jazbat": 3099,
      "kohsar": 3100,
      "musav": 3101,
      "begane": 3102,
      "qurban": 3103,
      "thoda": 3104,
      "tarikh": 3105,
      "ujad": 3106,
      "maze": 3107,
      "shararat": 3108,
      "tukde": 3109,
      "mubtala": 3110,
      "khalish": 3111,
      "nibah": 3112,
      "dubo": 3113,
      "zanu": 3114,
      "mutthi": 3115,
      "ibtida": 3116,
      "narm": 3117,
      "yadon": 3118,
      "bhulne": 3119,
      "daba": 3120,
      "ladka": 3121,
      "sulaiman": 3122,
      "raahi": 3123,
      "bandagi": 3124,
      "aamad": 3125,
      "janib": 3126,
      "muqaddam": 3127,
      "navazi": 3128,
      "baghban": 3129,
      "chadhte": 3130,
      "lafzon": 3131,
      "dhanak": 3132,
      "kunj": 3133,
      "kulfat": 3134,
      "qafila": 3135,
      "qafile": 3136,
      "fishan": 3137,
      "fishani": 3138,
      "kasrat": 3139,
      "likkha": 3140,
      "farogh": 3141,
      "shadman": 3142,
      "jhonka": 3143,
      "numud": 3144,
      "karishma": 3145,
      "lipat": 3146,
      "pahchane": 3147,
      "pher": 3148,
      "qimat": 3149,
      "rindan": 3150,
      "bhigta": 3151,
      "shakeba": 3152,
      "asiir": 3153,
      "dhadkan": 3154,
      "bahisht": 3155,
      "raston": 3156,
      "mudava": 3157,
      "lashkar": 3158,
      "inqalab": 3159,
      "valvale": 3160,
      "irada": 3161,
      "ibadat": 3162,
      "jeb": 3163,
      "mukhtasar": 3164,
      "insaf": 3165,
      "shorida": 3166,
      "''": 3167,
      "ali": 3168,
      "auq": 3169,
      "afaq": 3170,
      "bur": 3171,
      "bhan": 3172,
      "bure": 3173,
      "dh": 3174,
      "eq": 3175,
      "ejaz": 3176,
      "fuz": 3177,
      "fida": 3178,
      "fulan": 3179,
      "ghi": 3180,
      "gho": 3181,
      "ganj": 3182,
      "hila": 3183,
      "id": 3184,
      "iri": 3185,
      "jana": 3186,
      "jara": 3187,
      "jila": 3188,
      "lub": 3189,
      "mane": 3190,
      "nil": 3191,
      "nir": 3192,
      "nus": 3193,
      "nuk": 3194,
      "pam": 3195,
      "posh": 3196,
      "qu": 3197,
      "qul": 3198,
      "qus": 3199,
      "qud": 3200,
      "rula": 3201,
      "shane": 3202,
      "shana": 3203,
      "tun": 3204,
      "tin": 3205,
      "tit": 3206,
      "ude": 3207,
      "ufta": 3208,
      "ugal": 3209,
      "ve": 3210,
      "vara": 3211,
      "yu": 3212,
      "yas": 3213,
      "zat": 3214,
      "zah": 3215,
      "zud": 3216,
      "zahe": 3217,
      "-afat": 3218,
      "-nin": 3219,
      "-lad": 3220,
      "-hda": 3221,
      "-uch": 3222,
      "-umi": 3223,
      "-mun": 3224,
      "-mari": 3225,
      "-jte": 3226,
      "-jub": 3227,
      "-ekha": 3228,
      "-dur": 3229,
      "-dani": 3230,
      "-rur": 3231,
      "-ob": 3232,
      "-kat": 3233,
      "-kim": 3234,
      "-bin": 3235,
      "-baz": 3236,
      "-von": 3237,
      "-xism": 3238,
      "hafi": 3239,
      "hakim": 3240,
      "-haz": 3241,
      "-hiyan": 3242,
      "-ant": 3243,
      "-andar": 3244,
      "kim": 3245,
      "kap": 3246,
      "kashan": 3247,
      "kausar": 3248,
      "-yab": 3249,
      "-unga": 3250,
      "jaal": 3251,
      "sehr": 3252,
      "kotah": 3253,
      "saun": 3254,
      "saal": 3255,
      "sakhti": 3256,
      "-shna": 3257,
      "-iron": 3258,
      "maah": 3259,
      "mauq": 3260,
      "makin": 3261,
      "maula": 3262,
      "bag": 3263,
      "bab": 3264,
      "bac": 3265,
      "baam": 3266,
      "baal": 3267,
      "bahane": 3268,
      "-khvan": 3269,
      "-dakta": 3270,
      "-ona": 3271,
      "razi": 3272,
      "ravani": 3273,
      "kari": 3274,
      "-chha": 3275,
      "-chon": 3276,
      "dilbari": 3277,
      "-ista": 3278,
      "muus": 3279,
      "gaz": 3280,
      "gavah": 3281,
      "shaan": 3282,
      "shash": 3283,
      "shahan": 3284,
      "shamat": 3285,
      "shahad": 3286,
      "-asar": 3287,
      "-asaz": 3288,
      "-adon": 3289,
      "-adis": 3290,
      "chahun": 3291,
      "khufta": 3292,
      "taf": 3293,
      "taan": 3294,
      "tavani": 3295,
      "khada": 3296,
      "khama": 3297,
      "khashak": 3298,
      "vaisi": 3299,
      "abg": 3300,
      "abla": 3301,
      "yag": 3302,
      "yahin": 3303,
      "parchha": 3304,
      "neki": 3305,
      "thahre": 3306,
      "ghal": 3307,
      "ghalat": 3308,
      "rahti": 3309,
      "lada": 3310,
      "lachak": 3311,
      "niha": 3312,
      "nish": 3313,
      "niyyat": 3314,
      "paata": 3315,
      "paoge": 3316,
      "becha": 3317,
      "apnon": 3318,
      "darta": 3319,
      "darban": 3320,
      "darvaz": 3321,
      "anchal": 3322,
      "harim": 3323,
      "pesha": 3324,
      "siikh": 3325,
      "daar": 3326,
      "daala": 3327,
      "daale": 3328,
      "dekhen": 3329,
      "phira": 3330,
      "lihaz": 3331,
      "-maga": 3332,
      "bahs": 3333,
      "bahta": 3334,
      "bahte": 3335,
      "bahari": 3336,
      "kabab": 3337,
      "sabat": 3338,
      "sabit": 3339,
      "asum": 3340,
      "asbab": 3341,
      "asiri": 3342,
      "sarshar": 3343,
      "sarmaya": 3344,
      "sarasar": 3345,
      "dukha": 3346,
      "unhin": 3347,
      "chhat": 3348,
      "chhid": 3349,
      "chhuri": 3350,
      "gusta": 3351,
      "-rav": 3352,
      "milen": 3353,
      "garon": 3354,
      "garmiyan": 3355,
      "jaada": 3356,
      "jaage": 3357,
      "takmil": 3358,
      "khvani": 3359,
      "jidhar": 3360,
      "uthen": 3361,
      "-hron": 3362,
      "-faz": 3363,
      "-shah": 3364,
      "gulu": 3365,
      "zaval": 3366,
      "mol": 3367,
      "mod": 3368,
      "badhe": 3369,
      "badli": 3370,
      "badhte": 3371,
      "dosh": 3372,
      "nikale": 3373,
      "banane": 3374,
      "banhon": 3375,
      "marzi": 3376,
      "marxism": 3377,
      "sokhta": 3378,
      "gharq": 3379,
      "-midi": 3380,
      "kahaniyan": 3381,
      "mand": 3382,
      "mandir": 3383,
      "sako": 3384,
      "saken": 3385,
      "shabistan": 3386,
      "alon": 3387,
      "aluda": 3388,
      "mahb": 3389,
      "mahke": 3390,
      "mahki": 3391,
      "sunun": 3392,
      "pahli": 3393,
      "pahron": 3394,
      "jald": 3395,
      "jallad": 3396,
      "azmane": 3397,
      "naznin": 3398,
      "sharafat": 3399,
      "kamre": 3400,
      "kamyab": 3401,
      "khudaya": 3402,
      "sahara": 3403,
      "bhara": 3404,
      "-vand": 3405,
      "bik": 3406,
      "biit": 3407,
      "tamir": 3408,
      "chalan": 3409,
      "ashkar": 3410,
      "khanon": 3411,
      "charasaz": 3412,
      "labi": 3413,
      "labre": 3414,
      "zulekha": 3415,
      "khatka": 3416,
      "afat": 3417,
      "afza": 3418,
      "aflak": 3419,
      "qatre": 3420,
      "batil": 3421,
      "batla": 3422,
      "puchhun": 3423,
      "ajza": 3424,
      "ajjub": 3425,
      "chhodi": 3426,
      "chuun": 3427,
      "chuum": 3428,
      "guzari": 3429,
      "adh": 3430,
      "goshe": 3431,
      "-ghat": 3432,
      "yaran": 3433,
      "farz": 3434,
      "kholi": 3435,
      "mathe": 3436,
      "vasf": 3437,
      "-shtan": 3438,
      "-shton": 3439,
      "ashiyana": 3440,
      "aten": 3441,
      "uthaya": 3442,
      "uthate": 3443,
      "zulfen": 3444,
      "zulfon": 3445,
      "khid": 3446,
      "khayalon": 3447,
      "sanson": 3448,
      "shakhon": 3449,
      "laash": 3450,
      "tevar": 3451,
      "bandon": 3452,
      "purani": 3453,
      "aadam": 3454,
      "bhaa": 3455,
      "bhag": 3456,
      "bhage": 3457,
      "bhali": 3458,
      "pichh": 3459,
      "piye": 3460,
      "piite": 3461,
      "piiri": 3462,
      "dikhati": 3463,
      "ambar": 3464,
      "khulus": 3465,
      "khultin": 3466,
      "chehron": 3467,
      "-tanat": 3468,
      "chikh": 3469,
      "-bada": 3470,
      "divaron": 3471,
      "kahunga": 3472,
      "rafiq": 3473,
      "sharabi": 3474,
      "gungun": 3475,
      "imkan": 3476,
      "majaz": 3477,
      "dhundla": 3478,
      "pasban": 3479,
      "havadis": 3480,
      "rakhiye": 3481,
      "misr": 3482,
      "samjho": 3483,
      "talabi": 3484,
      "palkon": 3485,
      "qabr": 3486,
      "qabron": 3487,
      "likhta": 3488,
      "kyunki": 3489,
      "afsurdagi": 3490,
      "ranjish": 3491,
      "khvahan": 3492,
      "patton": 3493,
      "qasid": 3494,
      "udti": 3495,
      "virane": 3496,
      "talafi": 3497,
      "hadis": 3498,
      "hadsa": 3499,
      "rauzan": 3500,
      "ghunt": 3501,
      "ghunche": 3502,
      "jalaya": 3503,
      "bakhshe": 3504,
      "bakhshish": 3505,
      "kanton": 3506,
      "taqrir": 3507,
      "yaqub": 3508,
      "siyasat": 3509,
      "khvahishon": 3510,
      "qalandar": 3511,
      "-bih": 3512,
      "safha": 3513,
      "farishta": 3514,
      "irshad": 3515,
      "luta": 3516,
      "naghme": 3517,
      "katti": 3518,
      "sirat": 3519,
      "tariq": 3520,
      "tariki": 3521,
      "samundaron": 3522,
      "kholte": 3523,
      "saanp": 3524,
      "tapish": 3525,
      "puchhiye": 3526,
      "chhupana": 3527,
      "raftagan": 3528,
      "mazmun": 3529,
      "tavaqq": 3530,
      "bichha": 3531,
      "sambhalta": 3532,
      "dandan": 3533,
      "dhoke": 3534,
      "ijad": 3535,
      "dariche": 3536,
      "bachcha": 3537,
      "tuuti": 3538,
      "khaliq": 3539,
      "dubte": 3540,
      "chhati": 3541,
      "uttha": 3542,
      "andhere": 3543,
      "andheron": 3544,
      "tishnagi": 3545,
      "dastak": 3546,
      "panah": 3547,
      "kahiyo": 3548,
      "mutrib": 3549,
      "mutlaq": 3550,
      "chamakti": 3551,
      "nashinon": 3552,
      "iltimas": 3553,
      "nakhuda": 3554,
      "madd": 3555,
      "bhulane": 3556,
      "paimane": 3557,
      "pattharon": 3558,
      "uryan": 3559,
      "raakh": 3560,
      "bhej": 3561,
      "janiye": 3562,
      "sailab": 3563,
      "zarurat": 3564,
      "musalsal": 3565,
      "dalil": 3566,
      "turra": 3567,
      "chadha": 3568,
      "khilaf": 3569,
      "kaifiyat": 3570,
      "parasti": 3571,
      "andesh": 3572,
      "faqiron": 3573,
      "aghosh": 3574,
      "chor": 3575,
      "chot": 3576,
      "tazgi": 3577,
      "sannate": 3578,
      "maqsad": 3579,
      "saltanat": 3580,
      "likkhe": 3581,
      "azizan": 3582,
      "nasheb": 3583,
      "nahaq": 3584,
      "savere": 3585,
      "maghrur": 3586,
      "chamka": 3587,
      "dusra": 3588,
      "faragh": 3589,
      "ramz": 3590,
      "sils": 3591,
      "nabz": 3592,
      "kaafi": 3593,
      "simab": 3594,
      "sumbul": 3595,
      "biich": 3596,
      "uljhan": 3597,
      "shanasa": 3598,
      "amada": 3599,
      "danish": 3600,
      "emal": 3601,
      "figar": 3602,
      "rifaqat": 3603,
      "vabal": 3604,
      "nagri": 3605,
      "mukarrar": 3606,
      "ustukhvan": 3607,
      "khazana": 3608,
      "niklen": 3609,
      "nazzare": 3610,
      "hech": 3611,
      "hilal": 3612,
      "qibla": 3613,
      "nairang": 3614,
      "chappe": 3615,
      "bekasi": 3616,
      "angez": 3617,
      "dukhane": 3618,
      "ungliyan": 3619,
      "pukare": 3620,
      "ghusse": 3621,
      "fahm": 3622,
      "imaam": 3623,
      "zillat": 3624,
      "zuhur": 3625,
      "kirdar": 3626,
      "hushyar": 3627,
      "vafad": 3628,
      "laghzish": 3629,
      "daregh": 3630,
      "angusht": 3631,
      "supurdagi": 3632,
      "bharosa": 3633,
      "fakhr": 3634,
      "musavvir": 3635,
      "auqat": 3636,
      "dhyan": 3637,
      "jarahat": 3638,
      "lubha": 3639,
      "nuskha": 3640,
      "nukta": 3641,
      "qusur": 3642,
      "qudrat": 3643,
      "varaq": 3644,
      "muusa": 3645,
      "gustakhi": 3646,
      "labrez": 3647,
      "tavaqqo": 3648,
      "aya": 3649,
      "ata": 3650,
      "ahan": 3651,
      "ach": 3652,
      "agah": 3653,
      "atak": 3654,
      "bil": 3655,
      "eda": 3656,
      "eri": 3657,
      "fat": 3658,
      "gil": 3659,
      "ghin": 3660,
      "ghan": 3661,
      "gal": 3662,
      "gala": 3663,
      "ghane": 3664,
      "ii": 3665,
      "ita": 3666,
      "iza": 3667,
      "itab": 3668,
      "jhe": 3669,
      "jane": 3670,
      "jata": 3671,
      "jhad": 3672,
      "jham": 3673,
      "jhil": 3674,
      "lar": 3675,
      "mani": 3676,
      "naraz": 3677,
      "oj": 3678,
      "odh": 3679,
      "phi": 3680,
      "put": 3681,
      "pani": 3682,
      "pit": 3683,
      "qum": 3684,
      "tat": 3685,
      "thar": 3686,
      "tana": 3687,
      "ug": 3688,
      "uun": 3689,
      "uman": 3690,
      "vari": 3691,
      "zari": 3692,
      "zani": 3693,
      "-av": 3694,
      "-nu": 3695,
      "-gda": 3696,
      "-gnu": 3697,
      "-ih": 3698,
      "-ij": 3699,
      "-iyyat": 3700,
      "-sp": 3701,
      "-sen": 3702,
      "-sab": 3703,
      "-sani": 3704,
      "-lhe": 3705,
      "-lana": 3706,
      "-lman": 3707,
      "-yari": 3708,
      "-hd": 3709,
      "-uta": 3710,
      "-uti": 3711,
      "-ude": 3712,
      "-mb": 3713,
      "-mul": 3714,
      "-jha": 3715,
      "-jhi": 3716,
      "-juman": 3717,
      "-ez": 3718,
      "-dud": 3719,
      "-ro": 3720,
      "-rah": 3721,
      "-rab": 3722,
      "-rad": 3723,
      "-riya": 3724,
      "-rim": 3725,
      "-ruf": 3726,
      "-tara": 3727,
      "-tni": 3728,
      "-tvan": 3729,
      "-ol": 3730,
      "-ko": 3731,
      "-kas": 3732,
      "-zum": 3733,
      "-bah": 3734,
      "-par": 3735,
      "-pka": 3736,
      "-qon": 3737,
      "-aron": 3738,
      "haf": 3739,
      "hajat": 3740,
      "haif": 3741,
      "nafa": 3742,
      "nami": 3743,
      "nadam": 3744,
      "kish": 3745,
      "kach": 3746,
      "kati": 3747,
      "kaate": 3748,
      "kakul": 3749,
      "-engi": 3750,
      "-yaza": 3751,
      "-yadi": 3752,
      "jaza": 3753,
      "jave": 3754,
      "jasta": 3755,
      "javah": 3756,
      "seh": 3757,
      "savar": 3758,
      "saik": 3759,
      "-ini": 3760,
      "-inon": 3761,
      "-ire": 3762,
      "mau": 3763,
      "maha": 3764,
      "maat": 3765,
      "maya": 3766,
      "mali": 3767,
      "maani": 3768,
      "mashi": 3769,
      "makhm": 3770,
      "mashr": 3771,
      "machal": 3772,
      "bash": 3773,
      "bayani": 3774,
      "baap": 3775,
      "baiza": 3776,
      "baant": 3777,
      "-amin": 3778,
      "honi": 3779,
      "-khshan": 3780,
      "-khtan": 3781,
      "-urrad": 3782,
      "huma": 3783,
      "rad": 3784,
      "raam": 3785,
      "rasan": 3786,
      "ravi": 3787,
      "bhigi": 3788,
      "bhige": 3789,
      "aaoge": 3790,
      "dilcha": 3791,
      "dildari": 3792,
      "dilkash": 3793,
      "-isan": 3794,
      "mua": 3795,
      "mukha": 3796,
      "musha": 3797,
      "mufl": 3798,
      "-abu": 3799,
      "-hez": 3800,
      "tuti": 3801,
      "tujhi": 3802,
      "-tega": 3803,
      "shahin": 3804,
      "shayan": 3805,
      "-asib": 3806,
      "-tiq": 3807,
      "degi": 3808,
      "chahen": 3809,
      "chatak": 3810,
      "taa": 3811,
      "tav": 3812,
      "taal": 3813,
      "taul": 3814,
      "taara": 3815,
      "taza": 3816,
      "taus": 3817,
      "tazi": 3818,
      "-uli": 3819,
      "khaza": 3820,
      "khabari": 3821,
      "abe": 3822,
      "ablon": 3823,
      "parcha": 3824,
      "parhez": 3825,
      "hikayat": 3826,
      "thakan": 3827,
      "-chhon": 3828,
      "ghaat": 3829,
      "ghali": 3830,
      "mujass": 3831,
      "lai": 3832,
      "laal": 3833,
      "laata": 3834,
      "lahad": 3835,
      "lakir": 3836,
      "laqab": 3837,
      "niyam": 3838,
      "nihani": 3839,
      "pag": 3840,
      "paz": 3841,
      "pairon": 3842,
      "bel": 3843,
      "bekar": 3844,
      "diije": 3845,
      "darun": 3846,
      "darbar": 3847,
      "darja": 3848,
      "darpe": 3849,
      "tirgi": 3850,
      "auraq": 3851,
      "ankhi": 3852,
      "haris": 3853,
      "harne": 3854,
      "pechan": 3855,
      "sif": 3856,
      "daali": 3857,
      "dakhl": 3858,
      "dashna": 3859,
      "isharat": 3860,
      "dekhti": 3861,
      "liije": 3862,
      "ikram": 3863,
      "bahla": 3864,
      "kabk": 3865,
      "sabaq": 3866,
      "-liz": 3867,
      "asl": 3868,
      "asir": 3869,
      "asli": 3870,
      "asani": 3871,
      "-ghl": 3872,
      "saron": 3873,
      "sarfa": 3874,
      "duha": 3875,
      "uncha": 3876,
      "chhi": 3877,
      "chhalak": 3878,
      "gusar": 3879,
      "-rak": 3880,
      "taras": 3881,
      "tarjuman": 3882,
      "milenge": 3883,
      "millat": 3884,
      "sudhar": 3885,
      "jabr": 3886,
      "jii": 3887,
      "jihat": 3888,
      "jibr": 3889,
      "-diya": 3890,
      "-hram": 3891,
      "-fak": 3892,
      "ruh": 3893,
      "rum": 3894,
      "ruki": 3895,
      "ruba": 3896,
      "rudad": 3897,
      "engi": 3898,
      "nazari": 3899,
      "mor": 3900,
      "barf": 3901,
      "barsa": 3902,
      "bartara": 3903,
      "dohr": 3904,
      "dohra": 3905,
      "niko": 3906,
      "zinhar": 3907,
      "soi": 3908,
      "gharon": 3909,
      "insani": 3910,
      "janun": 3911,
      "zamzam": 3912,
      "zambur": 3913,
      "manta": 3914,
      "mandan": 3915,
      "mantiq": 3916,
      "-itan": 3917,
      "-iton": 3918,
      "-varon": 3919,
      "almas": 3920,
      "alfaz": 3921,
      "mahmil": 3922,
      "mahru": 3923,
      "mahsus": 3924,
      "rangon": 3925,
      "sunne": 3926,
      "sunsan": 3927,
      "puj": 3928,
      "puuri": 3929,
      "pukhta": 3930,
      "pahna": 3931,
      "pahla": 3932,
      "jalti": 3933,
      "jalana": 3934,
      "jalane": 3935,
      "jaldi": 3936,
      "jalate": 3937,
      "qaabu": 3938,
      "azab": 3939,
      "azmat": 3940,
      "azurdagi": 3941,
      "shole": 3942,
      "sharara": 3943,
      "sharik": 3944,
      "shifa": 3945,
      "-stan": 3946,
      "-ize": 3947,
      "-shiyar": 3948,
      "jahannam": 3949,
      "biina": 3950,
      "biite": 3951,
      "bimari": 3952,
      "chalen": 3953,
      "are": 3954,
      "ariz": 3955,
      "arzan": 3956,
      "-uja": 3957,
      "ashuq": 3958,
      "ashob": 3959,
      "giri": 3960,
      "gird": 3961,
      "girye": 3962,
      "vahid": 3963,
      "ummat": 3964,
      "shamil": 3965,
      "lagan": 3966,
      "lagana": 3967,
      "lagenge": 3968,
      "zarar": 3969,
      "itra": 3970,
      "tabar": 3971,
      "tabib": 3972,
      "khushki": 3973,
      "shahron": 3974,
      "batin": 3975,
      "tasbih": 3976,
      "puchhne": 3977,
      "hijrat": 3978,
      "chhote": 3979,
      "subur": 3980,
      "chub": 3981,
      "chuur": 3982,
      "chulhe": 3983,
      "tanz": 3984,
      "jugnu": 3985,
      "nase": 3986,
      "kharosh": 3987,
      "padha": 3988,
      "guzaran": 3989,
      "guzarta": 3990,
      "guzarte": 3991,
      "guzarti": 3992,
      "gosha": 3993,
      "baharan": 3994,
      "halqe": 3995,
      "farsh": 3996,
      "farang": 3997,
      "farzan": 3998,
      "farosh": 3999,
      "khoi": 4000,
      "khota": 4001,
      "khole": 4002,
      "matha": 4003,
      "ulat": 4004,
      "muns": 4005,
      "munkir": 4006,
      "munasib": 4007,
      "dosto": 4008,
      "aton": 4009,
      "chalega": 4010,
      "uthao": 4011,
      "khile": 4012,
      "khitab": 4013,
      "-riq": 4014,
      "masruf": 4015,
      "pyala": 4016,
      "pyase": 4017,
      "khayalat": 4018,
      "vardat": 4019,
      "duuri": 4020,
      "chhuta": 4021,
      "sandal": 4022,
      "sansen": 4023,
      "laag": 4024,
      "laao": 4025,
      "suuna": 4026,
      "sadaon": 4027,
      "sadaqat": 4028,
      "-indon": 4029,
      "baithi": 4030,
      "baithen": 4031,
      "bandhe": 4032,
      "manzilon": 4033,
      "purkar": 4034,
      "purze": 4035,
      "bhad": 4036,
      "bhadak": 4037,
      "fasla": 4038,
      "fasane": 4039,
      "fasle": 4040,
      "piine": 4041,
      "buzur": 4042,
      "karoge": 4043,
      "khamyaza": 4044,
      "yaksar": 4045,
      "dikhata": 4046,
      "khunab": 4047,
      "amez": 4048,
      "khuld": 4049,
      "khulte": 4050,
      "khulti": 4051,
      "nistan": 4052,
      "nishana": 4053,
      "samajhti": 4054,
      "bola": 4055,
      "boriya": 4056,
      "chidiyon": 4057,
      "chilman": 4058,
      "chitvan": 4059,
      "dhuen": 4060,
      "dhuul": 4061,
      "ghul": 4062,
      "maqbul": 4063,
      "kalisa": 4064,
      "nikalta": 4065,
      "nikalne": 4066,
      "dushmanon": 4067,
      "mehrab": 4068,
      "shikasta": 4069,
      "dengi": 4070,
      "badalne": 4071,
      "anjan": 4072,
      "ashiqon": 4073,
      "khincha": 4074,
      "shuda": 4075,
      "shubah": 4076,
      "shefta": 4077,
      "vahshaten": 4078,
      "saugan": 4079,
      "duaon": 4080,
      "sochen": 4081,
      "sochun": 4082,
      "guna": 4083,
      "nashv": 4084,
      "nashshe": 4085,
      "majma": 4086,
      "majra": 4087,
      "jhuta": 4088,
      "jhuki": 4089,
      "rakkh": 4090,
      "tamami": 4091,
      "udaa": 4092,
      "sadkon": 4093,
      "aarsi": 4094,
      "lahza": 4095,
      "lahje": 4096,
      "hoshyar": 4097,
      "utarta": 4098,
      "utarti": 4099,
      "pahunchi": 4100,
      "palken": 4101,
      "mitne": 4102,
      "ranjur": 4103,
      "kheme": 4104,
      "patang": 4105,
      "udte": 4106,
      "udata": 4107,
      "zohd": 4108,
      "naumidi": 4109,
      "-khez": 4110,
      "shorish": 4111,
      "hisar": 4112,
      "namus": 4113,
      "malb": 4114,
      "-urdagan": 4115,
      "khatak": 4116,
      "hadd": 4117,
      "hadsat": 4118,
      "hadson": 4119,
      "banegi": 4120,
      "lams": 4121,
      "-ftari": 4122,
      "khushiyon": 4123,
      "yaqut": 4124,
      "zalz": 4125,
      "safina": 4126,
      "saffak": 4127,
      "andoh": 4128,
      "sambha": 4129,
      "jazba": 4130,
      "fazaon": 4131,
      "farigh": 4132,
      "fariyadi": 4133,
      "farebi": 4134,
      "ilaj": 4135,
      "qurbani": 4136,
      "sajane": 4137,
      "bahak": 4138,
      "navak": 4139,
      "tapka": 4140,
      "tapidan": 4141,
      "girafta": 4142,
      "giraftari": 4143,
      "charagar": 4144,
      "chhupaya": 4145,
      "mazamin": 4146,
      "chahega": 4147,
      "arzani": 4148,
      "dhadakta": 4149,
      "shiraza": 4150,
      "-thara": 4151,
      "namazi": 4152,
      "gharibon": 4153,
      "gunahon": 4154,
      "shikaston": 4155,
      "piri": 4156,
      "bachpan": 4157,
      "bachate": 4158,
      "nibhane": 4159,
      "dubta": 4160,
      "chhap": 4161,
      "utthi": 4162,
      "utthen": 4163,
      "mardana": 4164,
      "mardum": 4165,
      "aziyyat": 4166,
      "andher": 4167,
      "andhera": 4168,
      "andheri": 4169,
      "kinare": 4170,
      "mutma": 4171,
      "tajrab": 4172,
      "iltija": 4173,
      "raqibon": 4174,
      "ganga": 4175,
      "yadgar": 4176,
      "hausle": 4177,
      "madr": 4178,
      "kushad": 4179,
      "kushada": 4180,
      "arzuen": 4181,
      "bhulen": 4182,
      "numayan": 4183,
      "uryani": 4184,
      "urdu": 4185,
      "kitabon": 4186,
      "raaja": 4187,
      "bhes": 4188,
      "bheji": 4189,
      "bheje": 4190,
      "baazi": 4191,
      "mulla": 4192,
      "tadapta": 4193,
      "pedon": 4194,
      "sikhata": 4195,
      "duuba": 4196,
      "bigde": 4197,
      "gehun": 4198,
      "gesuon": 4199,
      "satati": 4200,
      "turfa": 4201,
      "turbat": 4202,
      "khilaun": 4203,
      "sanvare": 4204,
      "rindana": 4205,
      "sataya": 4206,
      "zeb": 4207,
      "zehan": 4208,
      "kalami": 4209,
      "sairab": 4210,
      "pakad": 4211,
      "baraste": 4212,
      "bolen": 4213,
      "qamar": 4214,
      "qamat": 4215,
      "rizvan": 4216,
      "tadpa": 4217,
      "nakami": 4218,
      "hovega": 4219,
      "tazkira": 4220,
      "laute": 4221,
      "sunega": 4222,
      "jhagda": 4223,
      "tohfa": 4224,
      "shagufta": 4225,
      "nasheman": 4226,
      "avvalin": 4227,
      "sharmindagi": 4228,
      "savad": 4229,
      "bahalta": 4230,
      "muamla": 4231,
      "sipar": 4232,
      "dusre": 4233,
      "nafraton": 4234,
      "suluk": 4235,
      "karishme": 4236,
      "sidq": 4237,
      "istiq": 4238,
      "jhukti": 4239,
      "udasiyon": 4240,
      "dastaras": 4241,
      "mayusi": 4242,
      "amaan": 4243,
      "bhole": 4244,
      "dahshat": 4245,
      "dahliz": 4246,
      "vabasta": 4247,
      "nagin": 4248,
      "muzhda": 4249,
      "khazane": 4250,
      "darmanda": 4251,
      "momin": 4252,
      "nazzara": 4253,
      "sulagte": 4254,
      "amanat": 4255,
      "mariz": 4256,
      "nok": 4257,
      "timad": 4258,
      "timsal": 4259,
      "ufuq": 4260,
      "nadim": 4261,
      "mamura": 4262,
      "mamnun": 4263,
      "karbala": 4264,
      "andaza": 4265,
      "andalib": 4266,
      "chhedi": 4267,
      "chhede": 4268,
      "bichhde": 4269,
      "afrang": 4270,
      "qurbaten": 4271,
      "falsa": 4272,
      "ikhtila": 4273,
      "pabandi": 4274,
      "phod": 4275,
      "phenk": 4276,
      "rulaya": 4277,
      "thuk": 4278,
      "thanda": 4279,
      "kaabe": 4280,
      "kaleja": 4281,
      "khusrav": 4282,
      "bebasi": 4283,
      "tiflan": 4284,
      "andhiyon": 4285,
      "muqaddama": 4286,
      "shadmani": 4287,
      "bhanvar": 4288,
      "janaze": 4289,
      "pamba": 4290,
      "qulzum": 4291,
      "uftada": 4292,
      "kimiya": 4293,
      "mauquf": 4294,
      "shahadat": 4295,
      "tafsil": 4296,
      "abgina": 4297,
      "yagana": 4298,
      "nihayat": 4299,
      "mahbub": 4300,
      "adhura": 4301,
      "khidki": 4302,
      "pichhli": 4303,
      "gunguna": 4304,
      "maddham": 4305,
      "achchhon": 4306,
      "ojhal": 4307,
      "tharthara": 4308,
      "nadamat": 4309,
      "kishvar": 4310,
      "kachcha": 4311,
      "javahar": 4312,
      "malik": 4313,
      "mashiyyat": 4314,
      "makhmur": 4315,
      "mashrab": 4316,
      "dilchasp": 4317,
      "taulen": 4318,
      "tausan": 4319,
      "khazaf": 4320,
      "mujassam": 4321,
      "darpesh": 4322,
      "chhalakte": 4323,
      "jibril": 4324,
      "bartaraf": 4325,
      "mahrumi": 4326,
      "aun": 4327,
      "auj": 4328,
      "ayad": 4329,
      "achan": 4330,
      "alif": 4331,
      "bara": 4332,
      "bit": 4333,
      "bhab": 4334,
      "bhal": 4335,
      "batiyan": 4336,
      "dul": 4337,
      "dhir": 4338,
      "dham": 4339,
      "duri": 4340,
      "dhani": 4341,
      "dall": 4342,
      "eur": 4343,
      "ede": 4344,
      "ere": 4345,
      "ehram": 4346,
      "fil": 4347,
      "fut": 4348,
      "fani": 4349,
      "fate": 4350,
      "gam": 4351,
      "ghe": 4352,
      "ghir": 4353,
      "guun": 4354,
      "giya": 4355,
      "ghon": 4356,
      "giton": 4357,
      "hen": 4358,
      "iisa": 4359,
      "ikhl": 4360,
      "jhi": 4361,
      "jat": 4362,
      "jah": 4363,
      "jhal": 4364,
      "kand": 4365,
      "lati": 4366,
      "lasha": 4367,
      "laraz": 4368,
      "mon": 4369,
      "mish": 4370,
      "mim": 4371,
      "nan": 4372,
      "nuj": 4373,
      "nosh": 4374,
      "nindon": 4375,
      "pon": 4376,
      "pis": 4377,
      "path": 4378,
      "pand": 4379,
      "phala": 4380,
      "poshi": 4381,
      "qah": 4382,
      "ran": 4383,
      "rana": 4384,
      "rani": 4385,
      "rif": 4386,
      "rik": 4387,
      "rangi": 4388,
      "sin": 4389,
      "sani": 4390,
      "shun": 4391,
      "sile": 4392,
      "sone": 4393,
      "sona": 4394,
      "tis": 4395,
      "tund": 4396,
      "uz": 4397,
      "uga": 4398,
      "udi": 4399,
      "uja": 4400,
      "vuun": 4401,
      "vida": 4402,
      "yam": 4403,
      "yab": 4404,
      "zish": 4405,
      "-ain": 4406,
      "-aon": 4407,
      "-nata": 4408,
      "-ghi": 4409,
      "-gir": 4410,
      "-gas": 4411,
      "-gate": 4412,
      "-gmaga": 4413,
      "-ig": 4414,
      "-ip": 4415,
      "-ihan": 4416,
      "-iyy": 4417,
      "-sur": 4418,
      "-ste": 4419,
      "-sad": 4420,
      "-ssar": 4421,
      "-sitan": 4422,
      "-len": 4423,
      "-lis": 4424,
      "-lenge": 4425,
      "-lub": 4426,
      "-yur": 4427,
      "-hne": 4428,
      "-ush": 4429,
      "-uza": 4430,
      "-umat": 4431,
      "-uka": 4432,
      "-uki": 4433,
      "-umak": 4434,
      "-mta": 4435,
      "-mal": 4436,
      "-mala": 4437,
      "-mba": 4438,
      "-mughan": 4439,
      "-ju": 4440,
      "-jud": 4441,
      "-et": 4442,
      "-do": 4443,
      "-dha": 4444,
      "-den": 4445,
      "-dun": 4446,
      "-din": 4447,
      "-dil": 4448,
      "-dte": 4449,
      "-dhal": 4450,
      "-rin": 4451,
      "-rana": 4452,
      "-rani": 4453,
      "-ruh": 4454,
      "-tta": 4455,
      "-tti": 4456,
      "-tul": 4457,
      "-tne": 4458,
      "-tke": 4459,
      "-tila": 4460,
      "-od": 4461,
      "-ozi": 4462,
      "-ope": 4463,
      "-ostan": 4464,
      "-kt": 4465,
      "-kad": 4466,
      "-kara": 4467,
      "-kari": 4468,
      "-kati": 4469,
      "-kkul": 4470,
      "-zo": 4471,
      "-zad": 4472,
      "-zim": 4473,
      "-buri": 4474,
      "-fam": 4475,
      "-fani": 4476,
      "-path": 4477,
      "-psin": 4478,
      "-vin": 4479,
      "-vre": 4480,
      "-vri": 4481,
      "-vase": 4482,
      "-qah": 4483,
      "-qil": 4484,
      "-qam": 4485,
      "-qqi": 4486,
      "-ce": 4487,
      "-chir": 4488,
      "-chana": 4489,
      "haat": 4490,
      "haul": 4491,
      "hala": 4492,
      "haari": 4493,
      "haare": 4494,
      "haft": 4495,
      "halak": 4496,
      "-hada": 4497,
      "-haman": 4498,
      "-hib": 4499,
      "-hida": 4500,
      "-himan": 4501,
      "haivan": 4502,
      "haidar": 4503,
      "hairani": 4504,
      "-anon": 4505,
      "-anki": 4506,
      "-andiyon": 4507,
      "nal": 4508,
      "nak": 4509,
      "naga": 4510,
      "nasha": 4511,
      "nabar": 4512,
      "navar": 4513,
      "namat": 4514,
      "navish": 4515,
      "nachi": 4516,
      "nayyar": 4517,
      "nakira": 4518,
      "kiin": 4519,
      "kisht": 4520,
      "kad": 4521,
      "kav": 4522,
      "katar": 4523,
      "kafar": 4524,
      "kasu": 4525,
      "kasi": 4526,
      "kalim": 4527,
      "-att": 4528,
      "-aton": 4529,
      "-ahna": 4530,
      "java": 4531,
      "jama": 4532,
      "jaani": 4533,
      "jami": 4534,
      "jasus": 4535,
      "saat": 4536,
      "sava": 4537,
      "sahir": 4538,
      "saut": 4539,
      "sadi": 4540,
      "sahal": 4541,
      "savari": 4542,
      "sadiyan": 4543,
      "-inde": 4544,
      "-shon": 4545,
      "-shtar": 4546,
      "-ili": 4547,
      "-ilen": 4548,
      "-iran": 4549,
      "mahi": 4550,
      "maul": 4551,
      "mala": 4552,
      "mamat": 4553,
      "mahal": 4554,
      "mafat": 4555,
      "madad": 4556,
      "malak": 4557,
      "magas": 4558,
      "baj": 4559,
      "bair": 4560,
      "baari": 4561,
      "bali": 4562,
      "baani": 4563,
      "bakhi": 4564,
      "baaj": 4565,
      "bachan": 4566,
      "baasi": 4567,
      "baghal": 4568,
      "bauch": 4569,
      "bajte": 4570,
      "hoshiyar": 4571,
      "-khmi": 4572,
      "-hina": 4573,
      "-dab": 4574,
      "-daus": 4575,
      "-dasta": 4576,
      "-daba": 4577,
      "-dakhta": 4578,
      "huz": 4579,
      "hub": 4580,
      "huon": 4581,
      "hudi": 4582,
      "-taj": 4583,
      "toda": 4584,
      "rav": 4585,
      "radi": 4586,
      "raani": 4587,
      "rahiye": 4588,
      "rakhi": 4589,
      "rafaqat": 4590,
      "raihan": 4591,
      "bhiid": 4592,
      "bhiig": 4593,
      "aaise": 4594,
      "aase": 4595,
      "kara": 4596,
      "kargar": 4597,
      "karani": 4598,
      "karim": 4599,
      "kardani": 4600,
      "-chen": 4601,
      "-alat": 4602,
      "hami": 4603,
      "hamdar": 4604,
      "hamrah": 4605,
      "dildar": 4606,
      "-ishin": 4607,
      "muha": 4608,
      "mush": 4609,
      "much": 4610,
      "mugh": 4611,
      "muhaba": 4612,
      "muaf": 4613,
      "-abat": 4614,
      "-heli": 4615,
      "-haron": 4616,
      "tukhm": 4617,
      "tulu": 4618,
      "tufani": 4619,
      "gaa": 4620,
      "gahi": 4621,
      "gaah": 4622,
      "gava": 4623,
      "gasht": 4624,
      "shal": 4625,
      "shami": 4626,
      "shakar": 4627,
      "shauk": 4628,
      "shahana": 4629,
      "shaghl": 4630,
      "-asa": 4631,
      "-asat": 4632,
      "-asil": 4633,
      "-nak": 4634,
      "-tiyan": 4635,
      "-tibar": 4636,
      "-tikhar": 4637,
      "dev": 4638,
      "desh": 4639,
      "chaat": 4640,
      "chaur": 4641,
      "chaho": 4642,
      "chakan": 4643,
      "-era": 4644,
      "khutan": 4645,
      "jot": 4646,
      "joshish": 4647,
      "taha": 4648,
      "taari": 4649,
      "taaq": 4650,
      "taale": 4651,
      "tahal": 4652,
      "tasht": 4653,
      "tavaz": 4654,
      "tavana": 4655,
      "taham": 4656,
      "tayy": 4657,
      "-ule": 4658,
      "khad": 4659,
      "khaas": 4660,
      "khala": 4661,
      "khadi": 4662,
      "khami": 4663,
      "khaki": 4664,
      "vaari": 4665,
      "vaisa": 4666,
      "vazir": 4667,
      "vaade": 4668,
      "vapsin": 4669,
      "abir": 4670,
      "abshar": 4671,
      "yaum": 4672,
      "pardaz": 4673,
      "paristan": 4674,
      "parvari": 4675,
      "parvane": 4676,
      "parinde": 4677,
      "hifa": 4678,
      "hiire": 4679,
      "kuud": 4680,
      "kuja": 4681,
      "kuuch": 4682,
      "kushton": 4683,
      "thal": 4684,
      "thaan": 4685,
      "thami": 4686,
      "-chhta": 4687,
      "ghat": 4688,
      "ghabr": 4689,
      "ghatte": 4690,
      "mujrim": 4691,
      "mujko": 4692,
      "rahenge": 4693,
      "laate": 4694,
      "laale": 4695,
      "laqa": 4696,
      "ladak": 4697,
      "lapka": 4698,
      "niin": 4699,
      "nida": 4700,
      "nich": 4701,
      "niche": 4702,
      "nizam": 4703,
      "nigun": 4704,
      "nidhal": 4705,
      "paara": 4706,
      "payan": 4707,
      "pashe": 4708,
      "pachhta": 4709,
      "besh": 4710,
      "bezar": 4711,
      "bedari": 4712,
      "behosh": 4713,
      "bediyan": 4714,
      "divani": 4715,
      "dara": 4716,
      "darang": 4717,
      "darpa": 4718,
      "dariyan": 4719,
      "darida": 4720,
      "-hoshi": 4721,
      "-utar": 4722,
      "anvar": 4723,
      "anqa": 4724,
      "hari": 4725,
      "harja": 4726,
      "peche": 4727,
      "-gaf": 4728,
      "-mand": 4729,
      "-arazi": 4730,
      "sima": 4731,
      "simat": 4732,
      "sikan": 4733,
      "sidhar": 4734,
      "isyan": 4735,
      "islam": 4736,
      "israr": 4737,
      "daara": 4738,
      "dakan": 4739,
      "dahak": 4740,
      "daude": 4741,
      "dagmaga": 4742,
      "isharon": 4743,
      "phirun": 4744,
      "iksir": 4745,
      "-mash": 4746,
      "-makash": 4747,
      "bahne": 4748,
      "tumar": 4749,
      "kabutar": 4750,
      "sabil": 4751,
      "-lid": 4752,
      "asr": 4753,
      "asal": 4754,
      "ashami": 4755,
      "-ghla": 4756,
      "sarir": 4757,
      "sarkar": 4758,
      "sarvari": 4759,
      "sarkash": 4760,
      "sarsab": 4761,
      "sargir": 4762,
      "duud": 4763,
      "dukhi": 4764,
      "dumb": 4765,
      "unat": 4766,
      "unde": 4767,
      "unche": 4768,
      "unhon": 4769,
      "chhun": 4770,
      "chhil": 4771,
      "chhit": 4772,
      "kahenge": 4773,
      "kahkas": 4774,
      "gud": 4775,
      "gusari": 4776,
      "gudakhta": 4777,
      "tarrar": 4778,
      "tarbi": 4779,
      "tarasta": 4780,
      "-zaz": 4781,
      "milana": 4782,
      "milaya": 4783,
      "ghamze": 4784,
      "jaaya": 4785,
      "takhir": 4786,
      "takrana": 4787,
      "legi": 4788,
      "leve": 4789,
      "suuf": 4790,
      "suud": 4791,
      "suhane": 4792,
      "sukhe": 4793,
      "khv": 4794,
      "khone": 4795,
      "jiy": 4796,
      "jiya": 4797,
      "jite": 4798,
      "jibra": 4799,
      "utr": 4800,
      "utne": 4801,
      "utara": 4802,
      "utra": 4803,
      "uthana": 4804,
      "-hrenge": 4805,
      "-iyad": 4806,
      "rumi": 4807,
      "ruka": 4808,
      "rusta": 4809,
      "gulon": 4810,
      "gulsitan": 4811,
      "gulfam": 4812,
      "guldasta": 4813,
      "zakhmi": 4814,
      "moj": 4815,
      "mohan": 4816,
      "baran": 4817,
      "barch": 4818,
      "barkha": 4819,
      "bardar": 4820,
      "barsar": 4821,
      "barzakh": 4822,
      "barhami": 4823,
      "barmala": 4824,
      "barhaman": 4825,
      "barahna": 4826,
      "badon": 4827,
      "badshah": 4828,
      "dop": 4829,
      "doge": 4830,
      "doshi": 4831,
      "zindi": 4832,
      "banjh": 4833,
      "banate": 4834,
      "bande": 4835,
      "banki": 4836,
      "banjar": 4837,
      "-usi": 4838,
      "-ustan": 4839,
      "maren": 4840,
      "marti": 4841,
      "marka": 4842,
      "mardan": 4843,
      "sog": 4844,
      "soya": 4845,
      "soti": 4846,
      "sokhtan": 4847,
      "gharane": 4848,
      "-miyat": 4849,
      "inon": 4850,
      "insha": 4851,
      "janon": 4852,
      "janne": 4853,
      "zamurrad": 4854,
      "manin": 4855,
      "manda": 4856,
      "manga": 4857,
      "manata": 4858,
      "mandi": 4859,
      "manenge": 4860,
      "samate": 4861,
      "samri": 4862,
      "sakhi": 4863,
      "-vare": 4864,
      "mahn": 4865,
      "mahr": 4866,
      "sunati": 4867,
      "sunaya": 4868,
      "puuja": 4869,
      "pumba": 4870,
      "pahra": 4871,
      "jalati": 4872,
      "jalvat": 4873,
      "jalvon": 4874,
      "nigahban": 4875,
      "qai": 4876,
      "qaul": 4877,
      "qaum": 4878,
      "azir": 4879,
      "azur": 4880,
      "khuddari": 4881,
      "nazan": 4882,
      "nazil": 4883,
      "nazish": 4884,
      "qadd": 4885,
      "hasb": 4886,
      "shohada": 4887,
      "-isht": 4888,
      "sharbat": 4889,
      "sharif": 4890,
      "kamon": 4891,
      "kamzo": 4892,
      "khudaon": 4893,
      "khudavand": 4894,
      "rog": 4895,
      "basi": 4896,
      "base": 4897,
      "shii": 4898,
      "lohu": 4899,
      "dardmand": 4900,
      "sahe": 4901,
      "sahun": 4902,
      "sahte": 4903,
      "sahma": 4904,
      "sahare": 4905,
      "bharne": 4906,
      "-vandi": 4907,
      "biti": 4908,
      "biim": 4909,
      "biini": 4910,
      "tamkin": 4911,
      "chalenge": 4912,
      "ari": 4913,
      "arka": 4914,
      "arbada": 4915,
      "armughan": 4916,
      "husan": 4917,
      "aapas": 4918,
      "gire": 4919,
      "girdab": 4920,
      "khandan": 4921,
      "khanuman": 4922,
      "khanqah": 4923,
      "lagne": 4924,
      "lagane": 4925,
      "lagate": 4926,
      "chande": 4927,
      "labada": 4928,
      "vaqif": 4929,
      "zarkhez": 4930,
      "itti": 4931,
      "itnon": 4932,
      "tabir": 4933,
      "tabahi": 4934,
      "kaund": 4935,
      "kaunain": 4936,
      "khatti": 4937,
      "logo": 4938,
      "afv": 4939,
      "afsan": 4940,
      "bhuli": 4941,
      "bhuke": 4942,
      "bhuuk": 4943,
      "badaulat": 4944,
      "rakhe": 4945,
      "rakht": 4946,
      "rakhna": 4947,
      "rakhne": 4948,
      "batana": 4949,
      "ajz": 4950,
      "ajam": 4951,
      "ajaz": 4952,
      "ajize": 4953,
      "chhoti": 4954,
      "subu": 4955,
      "subut": 4956,
      "chusi": 4957,
      "bazon": 4958,
      "jui": 4959,
      "nasiya": 4960,
      "chashme": 4961,
      "chashmon": 4962,
      "khara": 4963,
      "kharash": 4964,
      "paden": 4965,
      "padun": 4966,
      "padin": 4967,
      "padhe": 4968,
      "padte": 4969,
      "padhiye": 4970,
      "padhte": 4971,
      "paima": 4972,
      "paivand": 4973,
      "guzara": 4974,
      "guzare": 4975,
      "guzarna": 4976,
      "fauj": 4977,
      "goi": 4978,
      "talne": 4979,
      "talvon": 4980,
      "tarazu": 4981,
      "taraqqi": 4982,
      "halanki": 4983,
      "naame": 4984,
      "fard": 4985,
      "farman": 4986,
      "farsa": 4987,
      "khoj": 4988,
      "khoya": 4989,
      "khoti": 4990,
      "khosha": 4991,
      "matla": 4992,
      "ulta": 4993,
      "uljhe": 4994,
      "ullah": 4995,
      "mez": 4996,
      "mund": 4997,
      "munin": 4998,
      "munfa": 4999
    }
  }
}